{"version":"1.0","truncation":{"max_length":150,"strategy":"LongestFirst","stride":0},"padding":{"strategy":{"Fixed":150},"direction":"Right","pad_to_multiple_of":null,"pad_id":0,"pad_type_id":0,"pad_token":"[PAD]"},"added_tokens":[{"id":0,"special":true,"content":"[PAD]","single_word":false,"lstrip":false,"rstrip":false,"normalized":false},{"id":2,"special":true,"content":"[UNK]","single_word":false,"lstrip":false,"rstrip":false,"normalized":false},{"id":3,"special":true,"content":"[CLS]","single_word":false,"lstrip":false,"rstrip":false,"normalized":false},{"id":4,"special":true,"content":"[SEP]","single_word":false,"lstrip":false,"rstrip":false,"normalized":false},{"id":5,"special":true,"content":"[MASK]","single_word":false,"lstrip":false,"rstrip":false,"normalized":false}],"normalizer":{"type":"BertNormalizer","clean_text":true,"handle_chinese_chars":true,"strip_accents":null,"lowercase":false},"pre_tokenizer":{"type":"BertPreTokenizer"},"post_processor":{"type":"TemplateProcessing","single":[{"SpecialToken":{"id":"[CLS]","type_id":0}},{"Sequence":{"id":"A","type_id":0}},{"SpecialToken":{"id":"[SEP]","type_id":0}}],"pair":[{"SpecialToken":{"id":"[CLS]","type_id":0}},{"Sequence":{"id":"A","type_id":0}},{"SpecialToken":{"id":"[SEP]","type_id":0}},{"Sequence":{"id":"B","type_id":1}},{"SpecialToken":{"id":"[SEP]","type_id":1}}],"special_tokens":{"[CLS]":{"id":"[CLS]","ids":[3],"tokens":["[CLS]"]},"[SEP]":{"id":"[SEP]","ids":[4],"tokens":["[SEP]"]}}},"decoder":{"type":"WordPiece","prefix":"##","cleanup":true},"model":{"type":"WordPiece","unk_token":"[UNK]","continuing_subword_prefix":"##","max_input_chars_per_word":100,"vocab":{"[PAD]":0,"[unused3001]":1,"[UNK]":2,"[CLS]":3,"[SEP]":4,"[MASK]":5,"##er":6,"##en":7,"##ch":8,"d":9,"##ei":10,"##un":11,"##ie":12,"##st":13,"##in":14,"##an":15,"##es":16,"##ein":17,"a":18,"s":19,"##ich":20,"der":21,"##ge":22,"##on":23,"S":24,"w":25,"##te":26,"##ung":27,"##sch":28,"##und":29,"die":30,"v":31,"A":32,"##ar":33,"##or":34,"B":35,"D":36,"##ur":37,"##it":38,"ein":39,"b":40,"##ll":41,"und":42,"##at":43,"z":44,"##as":45,"i":46,"##ten":47,"##hr":48,"##em":49,"in":50,"##us":51,"##gen":52,"n":53,"##al":54,"E":55,"M":56,"##de":57,"K":58,"m":59,"##ter":60,"G":61,"1":62,"##uf":63,"F":64,"##den":65,"##der":66,"er":67,"##lich":68,"f":69,"h":70,"##ach":71,"P":72,"##ber":73,"V":74,"##et":75,"R":76,"##el":77,"##eit":78,"W":79,"##ig":80,"zu":81,"##is":82,"##ra":83,"H":84,"##isch":85,"den":86,"ge":87,"von":88,"T":89,"##icht":90,"des":91,"##am":92,"das":93,"L":94,"##ür":95,"k":96,"##ier":97,"##re":98,"2":99,"##ol":100,"##om":101,"N":102,"I":103,"an":104,"##ut":105,"im":106,"##um":107,"##uch":108,"##and":109,"##ck":110,"g":111,"J":112,"##ben":113,"mit":114,"auf":115,"##ste":116,"##ent":117,"##ion":118,"##ro":119,"ver":120,"##ls":121,"Z":122,"[unused_punctuation4]":123,"##ir":124,"Die":125,"##il":126,"ist":127,"dem":128,"##la":129,"St":130,"be":131,"##rei":132,"Ver":133,"##le":134,"##ahr":135,"##ft":136,"U":137,"##sen":138,"##ger":139,"##ann":140,"19":141,"für":142,"##ah":143,"sich":144,"##se":145,"##kt":146,"aus":147,"20":148,"nicht":149,"Sch":150,"[unused_punctuation3]":151,"An":152,"als":153,"##ungs":154,"eine":155,"##ischen":156,"C":157,"##än":158,"wur":159,"##men":160,"##ver":161,"##au":162,"Be":163,"##ff":164,"##be":165,"##wei":166,"sein":167,"##sp":168,"O":169,"o":170,"##och":171,"##ik":172,"In":173,"un":174,"##ne":175,"##esch":176,"Er":177,"bei":178,"##eil":179,"l":180,"so":181,"##sten":182,"##über":183,"##ungen":184,"war":185,"Re":186,"##ien":187,"nach":188,"##etz":189,"##ün":190,"##cht":191,"wurde":192,"hat":193,"auch":194,"##iel":195,"##ri":196,"##ehr":197,"Ein":198,"##lä":199,"vor":200,"##scha":201,"##gt":202,"Jahr":203,"über":204,"sch":205,"##hn":206,"##stell":207,"##he":208,"t":209,"##ind":210,"##all":211,"##ern":212,"sie":213,"##urch":214,"##hen":215,"##eich":216,"##eu":217,"##aus":218,"##igen":219,"##ät":220,"dass":221,"##rie":222,"##ag":223,"##os":224,"einer":225,"Ab":226,"##ad":227,"##ab":228,"es":229,"##ort":230,"j":231,"wir":232,"Der":233,"Un":234,"am":235,"##ul":236,"##ot":237,"##lie":238,"##ation":239,"wer":240,"Ge":241,"st":242,"[unused_punctuation2]":243,"p":244,"##ster":245,"wie":246,"##schaft":247,"##lichen":248,"##enn":249,"##ang":250,"##ser":251,"zur":252,"##im":253,"ihr":254,"bis":255,"##hal":256,"##rt":257,"##end":258,"um":259,"zum":260,"durch":261,"##ische":262,"##wer":263,"##lle":264,"##rä":265,"werden":266,"unter":267,"##hl":268,"##ück":269,"##ing":270,"##zu":271,"##ru":272,"ent":273,"201":274,"vom":275,"Sp":276,"##tra":277,"200":278,"##mer":279,"##chen":280,"ab":281,"##gel":282,"##eut":283,"##est":284,"##ühr":285,"En":286,"sind":287,"##ige":288,"##op":289,"##ran":290,"Aus":291,"wird":292,"##iv":293,"3":294,"Das":295,"##ör":296,"einem":297,"Ber":298,"##rund":299,"##eiter":300,"##00":301,"##art":302,"einen":303,"Mit":304,"##tet":305,"##nen":306,"##atz":307,"##uss":308,"oder":309,"##ges":310,"Vor":311,"ha":312,"##ön":313,"Pro":314,"Auf":315,"##eits":316,"Ar":317,"##ill":318,"##ed":319,"##her":320,"##iert":321,"##liche":322,"##geb":323,"##ist":324,"##auf":325,"Nach":326,"##pp":327,"##ahl":328,"##oll":329,"##zen":330,"##eutsch":331,"##tel":332,"##ht":333,"##pf":334,"##ert":335,"##ass":336,"##rit":337,"sp":338,"18":339,"##ell":340,"##ord":341,"##eben":342,"##che":343,"##ner":344,"##är":345,"Im":346,"##lin":347,"da":348,"all":349,"sei":350,"##bar":351,"##ähr":352,"##lag":353,"##gl":354,"##ers":355,"nur":356,"noch":357,"##rün":358,"##keit":359,"##det":360,"##alt":361,"##lt":362,"##uß":363,"##wie":364,"##anz":365,"##iz":366,"##og":367,"##trag":368,"##rü":369,"ber":370,"Sie":371,"##elt":372,"##me":373,"##land":374,"##läger":375,"##ommen":376,"##bt":377,"##eine":378,"##nis":379,"mehr":380,"ander":381,"zwei":382,"gegen":383,"##we":384,"##orm":385,"aber":386,"##acht":387,"Unter":388,"##ug":389,"dar":390,"Ma":391,"Kläger":392,"##dig":393,"##fahr":394,"##pt":395,"##ffen":396,"gew":397,"re":398,"##ess":399,"4":400,"##).":401,"##fol":402,"##ub":403,"##eiten":404,"##ohn":405,"zw":406,"##adt":407,"##ick":408,"##onder":409,"##ud":410,"##ust":411,"##ken":412,"##mt":413,"Land":414,"##ant":415,"##ze":416,"Zeit":417,"##führ":418,"dies":419,"##ho":420,"[unused_punctuation8]":421,"##etzt":422,"Abs":423,"weiter":424,"##ap":425,"##nah":426,"##wa":427,"##id":428,"##dung":429,"##ss":430,"kön":431,"##ech":432,"##tern":433,"##ic":434,"5":435,"##arb":436,"##ha":437,"Kon":438,"##neh":439,"##teil":440,"##fall":441,"Ent":442,"eines":443,"##ren":444,"##lei":445,"##mal":446,"##zeit":447,"##ob":448,"##ßen":449,"##ler":450,"##fen":451,"##utz":452,"##stand":453,"e":454,"Ges":455,"##ierte":456,"##aten":457,"##ieren":458,"soll":459,"lie":460,"hin":461,"##bur":462,"199":463,"##ak":464,"Arb":465,"hatte":466,"Bei":467,"wurden":468,"##orden":469,"##äch":470,"seiner":471,"Recht":472,"##reich":473,"haben":474,"##mit":475,"neu":476,"##lage":477,"man":478,"kann":479,"##.2":480,"##itz":481,"Es":482,"Bet":483,"##heit":484,"##lan":485,"##assen":486,"##att":487,"##ats":488,"##bst":489,"##glich":490,"Um":491,"##dem":492,"##ok":493,"kon":494,"Mar":495,"r":496,"Deutsch":497,"seine":498,"Bund":499,"##),":500,"##hm":501,"Al":502,"##üt":503,"gen":504,"##luss":505,"Se":506,"So":507,"##ße":508,"##gem":509,"##ktion":510,"##vor":511,"##klag":512,"##spr":513,"##ast":514,"et":515,"Her":516,"##zi":517,"##fe":518,"##iger":519,"##los":520,"##br":521,"##eigen":522,"bes":523,"Eur":524,"wieder":525,"##\",":526,"Ü":527,"Ch":528,"##ga":529,"##schei":530,"##ande":531,"##ischer":532,"##gesch":533,"dieser":534,"6":535,"##ierung":536,"##vers":537,"##gan":538,"ins":539,"ges":540,"bet":541,"##ens":542,"je":543,"##ia":544,"sowie":545,"##stän":546,"##01":547,"##ften":548,"Besch":549,"##ammen":550,"Fra":551,"##schen":552,"##od":553,"##nung":554,"habe":555,"##sicht":556,"wenn":557,"##ahn":558,"gem":559,"Stadt":560,"##ale":561,"##igkeit":562,"##lo":563,"##ität":564,"Grund":565,"##rich":566,"##rat":567,"##schie":568,"le":569,"Am":570,"##halten":571,"##olit":572,"Jahre":573,"##halt":574,"##sk":575,"De":576,"##amt":577,"Bundes":578,"##annt":579,"Beklag":580,"##öff":581,"ger":582,"##reis":583,"##stellt":584,"##inder":585,"dam":586,"##ard":587,"##ov":588,"##hör":589,"##üd":590,"##elbst":591,"##unden":592,"##lung":593,"Über":594,"##rieb":595,"##for":596,"zwischen":597,"Zu":598,"##burg":599,"##erk":600,"Ste":601,"seit":602,"##ließ":603,"##net":604,"Jahren":605,"##usammen":606,"##eist":607,"##per":608,"##alen":609,"Gem":610,"##ow":611,"##gung":612,"##hä":613,"Fl":614,"##walt":615,"##eld":616,"Fran":617,"##sel":618,"##aupt":619,"diese":620,"##grün":621,"##omm":622,"jed":623,"erst":624,"##tete":625,"##zeich":626,"ange":627,"Reg":628,"##ember":629,"##fer":630,"##zent":631,"##änder":632,"##qu":633,"7":634,"deutsch":635,"waren":636,"##ark":637,"##geben":638,"##inn":639,"##eg":640,"##rech":641,"17":642,"##stehen":643,"Gesch":644,"##rö":645,"##gericht":646,"##eister":647,"##weise":648,"gro":649,"her":650,"##icher":651,"##recht":652,"##bau":653,"Sta":654,"Wir":655,"Ro":656,"##tem":657,"##tschaft":658,"15":659,"##ium":660,"##berg":661,"##.1":662,"##ingen":663,"##iet":664,"198":665,"ausge":666,"##uer":667,"keine":668,"##leich":669,"dann":670,"worden":671,"Ger":672,"Ko":673,"##rupp":674,"##einen":675,"##oren":676,"##setz":677,"drei":678,"##ieder":679,"##ay":680,"bef":681,"ihre":682,"##eter":683,"##eim":684,"##satz":685,"##äter":686,"##glie":687,"##fü":688,"##iss":689,"Br":690,"##haus":691,"##halb":692,"##bl":693,"##hö":694,"8":695,"##pl":696,"##hne":697,"##imm":698,"##ater":699,"##grund":700,"##äß":701,"hier":702,"##ks":703,"##nehmen":704,"zurück":705,"##gend":706,"##ett":707,"bek":708,"##ibt":709,"##ont":710,"##ähl":711,"##steht":712,"##wir":713,"kl":714,"Berlin":715,"ihn":716,"Teil":717,"können":718,"Gemein":719,"##zie":720,"197":721,"##hem":722,"##ekt":723,"##ußer":724,"##St":725,"##spiel":726,"##amen":727,"Welt":728,"Geb":729,"##üs":730,"##eb":731,"##nte":732,"##igt":733,"##min":734,"##ild":735,"##du":736,"##pr":737,"eigen":738,"##gte":739,"##ionen":740,"16":741,"jedoch":742,"wo":743,"##igung":744,"##000":745,"Da":746,"gesch":747,"Rechts":748,"##mann":749,"Art":750,"##ma":751,"##egen":752,"##gs":753,"##öglich":754,"##öl":755,"##issen":756,"##nahme":757,"##iele":758,"##ielt":759,"##äft":760,"etwa":761,"Stra":762,"9":763,"schon":764,"##ende":765,"##licher":766,"##amm":767,"##pro":768,"##anden":769,"##ding":770,"##ienst":771,"##ke":772,"Sa":773,"##ian":774,"##fahren":775,"##war":776,"bereits":777,"##if":778,"##tre":779,"##reit":780,"ersten":781,"selbst":782,"führ":783,"Or":784,"beim":785,"##io":786,"ihm":787,"Bau":788,"beg":789,"fol":790,"##kte":791,"##zeu":792,"best":793,"##achen":794,"##llen":795,"##räs":796,"196":797,"diesem":798,"La":799,"seinen":800,"##kehr":801,"##essen":802,"##ährend":803,"194":804,"Spiel":805,"##bes":806,"##ierten":807,"Klägerin":808,"##hol":809,"12":810,"ihrer":811,"##wick":812,"seinem":813,"##falls":814,"Kl":815,"Men":816,"##licht":817,"##ister":818,"Q":819,"10":820,"##form":821,"##wä":822,"##öffent":823,"besch":824,"##1.":825,"Leben":826,"gel":827,"##isten":828,"##zt":829,"Pl":830,"Auch":831,"Deutschland":832,"##esen":833,"ob":834,"14":835,"##our":836,"##als":837,"##ive":838,"##spruch":839,"##ehen":840,"##gegen":841,"##zel":842,"##deut":843,"##mittel":844,"##fte":845,"Antrag":846,"anderen":847,"##eute":848,"##abei":849,"damit":850,"##atur":851,"##zw":852,"##rift":853,"##unkt":854,"Aut":855,"##ucht":856,"13":857,"##gang":858,"##stellung":859,"##lagen":860,"##stra":861,"Part":862,"##ker":863,"Für":864,"##ikan":865,"##ult":866,"##ilm":867,"##ogen":868,"geb":869,"viel":870,"##gleich":871,"##hält":872,"(1":873,"Ort":874,"##ald":875,"##wend":876,"Hö":877,"später":878,"Pf":879,"wen":880,"##forder":881,"##iden":882,"kom":883,"##ym":884,"##ander":885,"1.":886,"##amil":887,"einge":888,"##hin":889,"##fä":890,"##ichte":891,"Als":892,"gibt":893,"Mus":894,"erk":895,"dort":896,"Bes":897,"erfol":898,"##asser":899,"de":900,"##richt":901,"195":902,"##cken":903,"##zahl":904,"Ho":905,"##ivers":906,"##erson":907,"##ition":908,"Kar":909,"Haupt":910,"gleich":911,"Le":912,"Vers":913,"eben":914,"##ph":915,"Mill":916,"Eine":917,"Euro":918,"##agen":919,"##aum":920,"Urt":921,"immer":922,"##auer":923,"##kommen":924,"##.0":925,"Ende":926,"##ine":927,"##orf":928,"Ne":929,"Mon":930,"##ache":931,"##ober":932,"##lauf":933,"193":934,"ohne":935,"Hin":936,"##ank":937,"verb":938,"Kir":939,"##unter":940,"##undert":941,"##ire":942,"Bl":943,"Arbeit":944,"##\".":945,"Frau":946,"##ritt":947,"##ös":948,"##gangen":949,"##ce":950,"Gro":951,"##olog":952,"fest":953,"##iff":954,"##ondern":955,"##aut":956,"##enden":957,"fin":958,"Qu":959,"US":960,"was":961,"##ate":962,"Min":963,"##änger":964,"##.201":965,"##anu":966,"sondern":967,"liegt":968,"##hof":969,"##hand":970,"##ätz":971,"##schaften":972,"Mitglie":973,"##olitik":974,"Arbeits":975,"ar":976,"müs":977,"Ober":978,"##ule":979,"Mann":980,"Mün":981,"weil":982,"##ade":983,"Pol":984,"##gri":985,"##fl":986,"alle":987,"##stellen":988,"##sta":989,"Gen":990,"verl":991,"Frank":992,"##scheidung":993,"##cke":994,"##rin":995,"##uni":996,"##yst":997,"##genden":998,"recht":999,"Fall":1000,"##bei":1001,"##zial":1002,"##ange":1003,"##rad":1004,"##ohl":1005,"All":1006,"aller":1007,"Diese":1008,"##assung":1009,"##lau":1010,"kein":1011,"Süd":1012,"Jo":1013,"##röß":1014,"Te":1015,"##äng":1016,"pro":1017,"##ational":1018,"##hil":1019,"Haus":1020,"##ram":1021,"Verb":1022,"Fol":1023,"##itt":1024,"Dar":1025,"wegen":1026,"##age":1027,"Prozent":1028,"wel":1029,"##ärz":1030,"##ere":1031,"##gaben":1032,"El":1033,"##dr":1034,"Bo":1035,"##wert":1036,"zusammen":1037,"##reu":1038,"##ellen":1039,"Grün":1040,"##für":1041,"##gar":1042,"vier":1043,"##igten":1044,"hät":1045,"##mus":1046,"##führt":1047,"##sto":1048,"ihren":1049,"Wei":1050,"##ächst":1051,"##schieden":1052,"##ans":1053,"##hundert":1054,"##fang":1055,"##ständ":1056,"Verein":1057,"##gehen":1058,"Par":1059,"Rück":1060,"Beklagten":1061,"ä":1062,"##agt":1063,"nah":1064,"##sche":1065,"##erin":1066,"Ä":1067,"Kinder":1068,"Univers":1069,"##legen":1070,"Aug":1071,"##zug":1072,"Von":1073,"Europ":1074,"Menschen":1075,"##ationen":1076,"##lossen":1077,"##anuar":1078,"##oten":1079,"muss":1080,"##ron":1081,"##äm":1082,"##uft":1083,"konnte":1084,"Beklagte":1085,"Person":1086,"##uli":1087,"##ürger":1088,"##äu":1089,"##äd":1090,"##ystem":1091,"Ö":1092,"Neu":1093,"Mo":1094,"Fin":1095,"Ha":1096,"##meister":1097,"##räsiden":1098,"##rum":1099,"Gemeinde":1100,"##..":1101,"Satz":1102,"##fra":1103,"##gew":1104,"Fahr":1105,"##ruck":1106,"##ktober":1107,"Ex":1108,"##omp":1109,"sol":1110,"##uten":1111,"##ider":1112,"nun":1113,"Y":1114,"Famil":1115,"Durch":1116,"##kten":1117,"ersch":1118,"al":1119,"sehr":1120,"##stadt":1121,"zun":1122,"teil":1123,"##old":1124,"kam":1125,"Man":1126,"Beruf":1127,"##eite":1128,"##von":1129,"##rist":1130,"0":1131,"##zember":1132,"of":1133,"wür":1134,"##tember":1135,"##kl":1136,"##/1":1137,"heute":1138,"erste":1139,"Juni":1140,"Dies":1141,"##ehl":1142,"##ptember":1143,"30":1144,"Co":1145,"darauf":1146,"##urz":1147,"For":1148,"##enz":1149,"##bet":1150,"##ließlich":1151,"##ball":1152,"Zwei":1153,"##rag":1154,"##wohn":1155,"##heim":1156,"##dings":1157,"##punkt":1158,"##elle":1159,"##rot":1160,"Regel":1161,"##weis":1162,"Fest":1163,"Film":1164,"##lär":1165,"##akt":1166,"beiden":1167,"Landes":1168,"ich":1169,"##äre":1170,"##Ver":1171,"##rechen":1172,"##GB":1173,"größ":1174,"##.000":1175,"##ruppe":1176,"frü":1177,"##ünf":1178,"##na":1179,"dessen":1180,"Gegen":1181,"##ite":1182,"Urteil":1183,"##asse":1184,"##kon":1185,"##ko":1186,"192":1187,"Nord":1188,"Unternehmen":1189,"##res":1190,"Frei":1191,"##ute":1192,"Chr":1193,"25":1194,"während":1195,"seien":1196,"##eh":1197,"##raum":1198,"##tag":1199,"Mai":1200,"Januar":1201,"##reichen":1202,"gehör":1203,"##ellschaft":1204,"August":1205,"##...":1206,"letz":1207,"allem":1208,"##rach":1209,"##agte":1210,"##tei":1211,"deren":1212,"##iere":1213,"##ovember":1214,"##eiß":1215,"##itzen":1216,"##legt":1217,"##rieben":1218,"Oktober":1219,"##pril":1220,"§1":1221,"##ison":1222,"##waltungs":1223,"gef":1224,"Höhe":1225,"##ott":1226,"##werk":1227,"März":1228,"##heits":1229,"Juli":1230,"##vgl":1231,"Seit":1232,"The":1233,"neue":1234,"Inter":1235,"Kam":1236,"##besch":1237,"Schul":1238,"aufge":1239,"##rem":1240,"##yp":1241,"##itel":1242,"##gabe":1243,"##schutz":1244,"statt":1245,"##gemein":1246,"Nr":1247,"woll":1248,"##sst":1249,"##ond":1250,"##weit":1251,"##ele":1252,"##az":1253,"Komm":1254,"Sen":1255,"Jahrhundert":1256,"##treten":1257,"##sprech":1258,"September":1259,"II":1260,"##.200":1261,"##ondere":1262,"##ennt":1263,"##nahmen":1264,"##bung":1265,"##ried":1266,"sagte":1267,"##ost":1268,"Amt":1269,"##unde":1270,"##verb":1271,"##fin":1272,"##ubl":1273,"##schluss":1274,"Dezember":1275,"##eins":1276,"Krie":1277,"abge":1278,"will":1279,"neuen":1280,"##eid":1281,"##ys":1282,"##mals":1283,"Stud":1284,"##ac":1285,"vers":1286,"##zer":1287,"Betrieb":1288,"##hältnis":1289,"Zusammen":1290,"Gericht":1291,"Wohn":1292,"Dienst":1293,"11":1294,"##genommen":1295,"##kauf":1296,"Gra":1297,"Leist":1298,"##schn":1299,"dah":1300,"gab":1301,"steht":1302,"##mäß":1303,"denen":1304,"##aden":1305,"gest":1306,"Mal":1307,"##griff":1308,"Wer":1309,"##keiten":1310,"##rom":1311,"verw":1312,"##ip":1313,"Kosten":1314,"##bil":1315,"Wie":1316,"##änd":1317,"##wohl":1318,"##cher":1319,"en":1320,"Partei":1321,"##alien":1322,"##ennen":1323,"November":1324,"Th":1325,"##raft":1326,"##eint":1327,"dieses":1328,"191":1329,"##önig":1330,"April":1331,"##jahr":1332,"##echt":1333,"Ant":1334,"##bahn":1335,"Rei":1336,"##ordnung":1337,"2012":1338,"##annten":1339,"dabei":1340,"##annte":1341,"2010":1342,"Son":1343,"weitere":1344,"jewei":1345,"ganz":1346,"Vol":1347,"Ju":1348,"##so":1349,"c":1350,"fünf":1351,"voll":1352,"##ebru":1353,"##ebruar":1354,"andere":1355,"Und":1356,"Mitglied":1357,"##yn":1358,"zunächst":1359,"mus":1360,"Platz":1361,"Me":1362,"##man":1363,"Hand":1364,"##zogen":1365,"##iven":1366,"##dern":1367,"##ina":1368,"##erikan":1369,"Groß":1370,"Med":1371,"bzw":1372,"##wiesen":1373,"##unst":1374,"##gten":1375,"##eln":1376,"diesen":1377,"deutschen":1378,"##geber":1379,"Wirtschaft":1380,"##ünst":1381,"##urteil":1382,"2013":1383,"##rän":1384,"##minister":1385,"hö":1386,"außer":1387,"Sach":1388,"22":1389,"24":1390,"2011":1391,"2009":1392,"##issenschaft":1393,"2014":1394,"##bach":1395,"gewesen":1396,"##Sch":1397,"geht":1398,"Fuß":1399,"Wasser":1400,"Wahl":1401,"##läss":1402,"##ions":1403,"##ultur":1404,"##öt":1405,"##gesetzt":1406,"##stein":1407,"##reg":1408,"frei":1409,"Entscheidung":1410,"Zahl":1411,"##gesetz":1412,"lei":1413,"##hielt":1414,"##nehmer":1415,"##jähr":1416,"befin":1417,"##riv":1418,"Tag":1419,"Gew":1420,"##fern":1421,"spiel":1422,"verm":1423,"##eitung":1424,"dazu":1425,"Buch":1426,"Lebens":1427,"2008":1428,"##bert":1429,"##hung":1430,"##ame":1431,"Dem":1432,"We":1433,"##immt":1434,"##enk":1435,"Li":1436,"##org":1437,"ho":1438,"##stalt":1439,"##andelt":1440,"Ur":1441,"##zeichnet":1442,"##innen":1443,"##fur":1444,"##del":1445,"##ai":1446,"##ckt":1447,"Ob":1448,"##\")":1449,"##stre":1450,"offen":1451,"Mittel":1452,"##öst":1453,"##gebiet":1454,"davon":1455,"##mar":1456,"Hoch":1457,"ben":1458,"Woch":1459,"##ählt":1460,"ihrem":1461,"sagt":1462,"##angen":1463,"##fach":1464,"möglich":1465,"Februar":1466,"##sy":1467,"##iga":1468,"ex":1469,"EU":1470,"kommt":1471,"Gesetz":1472,"Tra":1473,"##tragen":1474,"müssen":1475,"Form":1476,"Staats":1477,"##ations":1478,"##gestellt":1479,"viele":1480,"##setzung":1481,"Saison":1482,"Millionen":1483,"König":1484,"##eren":1485,"##andel":1486,"##gründet":1487,"##ial":1488,"lang":1489,"verschieden":1490,"##feld":1491,"[unused_punctuation10]":1492,"23":1493,"Verwaltungs":1494,"Schw":1495,"2015":1496,"Rah":1497,"##eigt":1498,"ebenfalls":1499,"##ismus":1500,"zahl":1501,"##anach":1502,"Ind":1503,"##ou":1504,"##ütz":1505,"##iner":1506,"Bürger":1507,"##sol":1508,"##gerichts":1509,"##ilt":1510,"Politik":1511,"##besondere":1512,"##dete":1513,"##voll":1514,"##nten":1515,"(\"":1516,"München":1517,"bekannt":1518,"bel":1519,"hatten":1520,"rund":1521,"gut":1522,"##els":1523,"##ganis":1524,"Einzel":1525,"##rüf":1526,"##olf":1527,"2007":1528,"##ungsver":1529,"Rahmen":1530,"##jekt":1531,"Ka":1532,"##ehmen":1533,"Musik":1534,"##steller":1535,"##üb":1536,"##reiben":1537,"##kung":1538,"##ret":1539,"##krie":1540,"Lie":1541,"allerdings":1542,"Poliz":1543,"##stück":1544,"##achten":1545,"##schrift":1546,"sollte":1547,"wicht":1548,"##igte":1549,"##lichkeit":1550,"Bar":1551,"##führung":1552,"##örder":1553,"hä":1554,"##asst":1555,"##sver":1556,"At":1557,"Intern":1558,"Nieder":1559,"##rägt":1560,"kommen":1561,"Bay":1562,"Kap":1563,"Sicher":1564,"Fern":1565,"Denn":1566,"lä":1567,"##ritten":1568,"##sterreich":1569,"öffent":1570,"Geschäft":1571,"ehem":1572,"##ruppen":1573,"##gesamt":1574,"doch":1575,"Werk":1576,"##digung":1577,"##ichtet":1578,"Maß":1579,"nie":1580,"##zess":1581,"Lin":1582,"wäre":1583,"##stit":1584,"##rauch":1585,"##alb":1586,"##unft":1587,"##wahl":1588,"##schule":1589,"Klage":1590,"##alter":1591,"##straße":1592,"##af":1593,"Universität":1594,"Beschluss":1595,"##schied":1596,"##up":1597,"erhielt":1598,"##chn":1599,"##ib":1600,"##ichten":1601,"##räsident":1602,"Fre":1603,"##orn":1604,"##was":1605,"##zös":1606,"##ehn":1607,"sech":1608,"##steuer":1609,"gelten":1610,"##einander":1611,"2006":1612,"##esse":1613,"##ktur":1614,"##wort":1615,"zwar":1616,"##rigen":1617,"##inde":1618,"##arbeiter":1619,"##lam":1620,"Bahn":1621,"##ore":1622,"##gebnis":1623,"Ol":1624,"##av":1625,"gilt":1626,"28":1627,"(*":1628,"##stens":1629,"schwer":1630,"werde":1631,"stehen":1632,"##sichtlich":1633,"##ieg":1634,"##leist":1635,"26":1636,"Flug":1637,"also":1638,"##pflicht":1639,"get":1640,"lassen":1641,"##häng":1642,"besonder":1643,"##irekt":1644,"Produ":1645,"Namen":1646,"##ölker":1647,"form":1648,"2.":1649,"##opp":1650,"Gl":1651,"##roffen":1652,"gegenüber":1653,"##hört":1654,"blei":1655,"27":1656,"##vis":1657,"##nete":1658,"##ramm":1659,"Eigen":1660,"##unktion":1661,"##gie":1662,"Sport":1663,"Zw":1664,"ehemal":1665,"##äl":1666,"Jahres":1667,"##kunft":1668,"##,5":1669,"aufgrund":1670,"Ich":1671,"##ack":1672,"Ihr":1673,"##racht":1674,"Ange":1675,"weiteren":1676,"##kreis":1677,"FA":1678,"Doch":1679,"##alten":1680,"Lehr":1681,"##hein":1682,"Kran":1683,"Sin":1684,"Frage":1685,"##/0":1686,"Neben":1687,"seines":1688,"Bel":1689,"Christ":1690,"##ika":1691,"##ient":1692,"groß":1693,"##utter":1694,"##loss":1695,"Richt":1696,"##stimm":1697,"Kirche":1698,"##standen":1699,"Deutschen":1700,"Car":1701,"Em":1702,"Eis":1703,"##istor":1704,"Kunst":1705,"Frankfur":1706,"anderem":1707,"Reich":1708,"##echsel":1709,"Bereich":1710,"##ator":1711,"2016":1712,"##amp":1713,"großen":1714,"##hel":1715,"##ußen":1716,"erg":1717,"Erst":1718,"##schnitt":1719,"##schul":1720,"##erst":1721,"süd":1722,"Ser":1723,"Ad":1724,"neben":1725,"##chte":1726,"##haft":1727,"##lex":1728,"Verl":1729,"##inger":1730,"Hier":1731,"##räge":1732,"Streit":1733,"##äude":1734,"##weg":1735,"Weiter":1736,"##ierungs":1737,"##schein":1738,"##ris":1739,"Fried":1740,"Schl":1741,"##frei":1742,"##ilit":1743,"Kont":1744,"Vertrag":1745,"##eile":1746,"Finanz":1747,"polit":1748,"##iker":1749,"2005":1750,"##ätzlich":1751,"##ek":1752,"Erfol":1753,"##bild":1754,"##stag":1755,"##fahrens":1756,"einmal":1757,"##ula":1758,"##iell":1759,"dafür":1760,"Geld":1761,"##heiten":1762,"##assungs":1763,"##achte":1764,"begann":1765,"Ham":1766,"arbei":1767,"##ogra":1768,"##ätig":1769,"inner":1770,"##ublik":1771,"bisher":1772,"akt":1773,"einz":1774,"Bur":1775,"##ständig":1776,"##ins":1777,"Gener":1778,"##red":1779,"##urop":1780,"##handlung":1781,"##werb":1782,"##aß":1783,"Tod":1784,"##endet":1785,"Familie":1786,"##fs":1787,"machen":1788,"schw":1789,"##ue":1790,"##Die":1791,"##osten":1792,"Lei":1793,"##hann":1794,"Sohn":1795,"##plan":1796,"Stand":1797,"##ände":1798,"besteht":1799,"##laub":1800,"##sprechen":1801,"##99":1802,"denn":1803,"##ufen":1804,"New":1805,"##rotz":1806,"hätte":1807,"##inter":1808,"tra":1809,"##ity":1810,"##stellte":1811,"##eig":1812,"##iter":1813,"War":1814,"##lungen":1815,"##fert":1816,"##ons":1817,"##je":1818,"##gende":1819,"Fußball":1820,"##dent":1821,"##blem":1822,"##piel":1823,"Di":1824,"letzten":1825,"##ommer":1826,"##zü":1827,"##cker":1828,"Kur":1829,"Dam":1830,"insbesondere":1831,"##ranzös":1832,"29":1833,"gemäß":1834,"etwas":1835,"Titel":1836,"Bild":1837,"kurz":1838,"weit":1839,"##ücksicht":1840,"##wirtschaft":1841,"##isk":1842,"##wicklung":1843,"Rom":1844,"##An":1845,"##ließen":1846,"##zir":1847,"Anfang":1848,"##gr":1849,"Prof":1850,"Is":1851,"##eder":1852,"##lät":1853,"gehört":1854,"##isches":1855,"große":1856,"Dabei":1857,"unbe":1858,"##bereich":1859,"Gel":1860,"##weisen":1861,"##werde":1862,"##llt":1863,"##ologie":1864,"##iges":1865,"ging":1866,"##druck":1867,"jetzt":1868,"früher":1869,"Hil":1870,"##zept":1871,"Zent":1872,"He":1873,"deut":1874,"keinen":1875,"gemeins":1876,"##unk":1877,"ur":1878,"Wider":1879,"##hei":1880,"deshalb":1881,"Aber":1882,"##ums":1883,"##atsäch":1884,"##arten":1885,"##affen":1886,"veröffent":1887,"##achsen":1888,"##wohner":1889,"Bas":1890,"##onst":1891,"erz":1892,"erhalten":1893,"##wand":1894,"Frauen":1895,"##völker":1896,"West":1897,"jeweils":1898,"X":1899,"dür":1900,"Sk":1901,"##ide":1902,"würde":1903,"##kün":1904,"Ter":1905,"##schließ":1906,"vorlie":1907,"Polizei":1908,"zweiten":1909,"190":1910,"2004":1911,"Region":1912,"daher":1913,"##fäh":1914,"##ffiz":1915,"Anspruch":1916,"bean":1917,"Beg":1918,"##ral":1919,"##ct":1920,"National":1921,"sollen":1922,"##co":1923,"Gesamt":1924,"Johann":1925,"##wor":1926,"##renz":1927,"FAZ":1928,"##such":1929,"##fassung":1930,"eigenen":1931,"bil":1932,"##ymp":1933,"befindet":1934,"##inen":1935,"Klägers":1936,"##unt":1937,"sechs":1938,"Während":1939,"heiß":1940,"##lang":1941,"Jugend":1942,"##bildung":1943,"Akt":1944,"Tur":1945,"heraus":1946,"##stelle":1947,"Schwei":1948,"##one":1949,"##teilung":1950,"Steuer":1951,"könnte":1952,"##In":1953,"entwick":1954,"19.":1955,"##schlag":1956,"##eitet":1957,"##wendung":1958,"##nahm":1959,"französ":1960,"##ters":1961,"Bis":1962,"##üss":1963,"Herr":1964,"Band":1965,"##platz":1966,"einige":1967,"Geschäfts":1968,"zehn":1969,"##sitzen":1970,"Uhr":1971,"Mehr":1972,"##umen":1973,"Verm":1974,"##zeug":1975,"##ilom":1976,"##heb":1977,"##hang":1978,"##ppen":1979,"##prä":1980,"##scheiden":1981,"sel":1982,"fast":1983,"##stitut":1984,"ch":1985,"##iver":1986,"Sinne":1987,"fehl":1988,"##utt":1989,"##indung":1990,"##akte":1991,"erforder":1992,"Selbst":1993,"hinaus":1994,"nahm":1995,"##arr":1996,"##3,":1997,"##oph":1998,"welche":1999,"##orgen":2000,"##oss":2001,"intern":2002,"##bend":2003,"erne":2004,"##geg":2005,"deutsche":2006,"##änge":2007,"##flä":2008,"Geschichte":2009,"##nell":2010,"Ergebnis":2011,"hinter":2012,"nichts":2013,"##ission":2014,"##lungs":2015,"(2":2016,"Erk":2017,"heißt":2018,"Was":2019,"##van":2020,"insgesamt":2021,"##örper":2022,"gerade":2023,"Ins":2024,"##ies":2025,"lässt":2026,"versch":2027,"##0,":2028,"bestehen":2029,"##ven":2030,"##dar":2031,"gewann":2032,"##bel":2033,"##reffen":2034,"##mäßig":2035,"[unused_punctuation1]":2036,"te":2037,"Fach":2038,"##hle":2039,"hätten":2040,"Met":2041,"##par":2042,"##gangenen":2043,"grund":2044,"Schutz":2045,"##buch":2046,"stark":2047,"##mitt":2048,"Plan":2049,"Zur":2050,"Dort":2051,"Personen":2052,"Autor":2053,"bede":2054,"ne":2055,"##neten":2056,"Pat":2057,"##reiche":2058,"Kultur":2059,"ihnen":2060,"##1,":2061,"erstmals":2062,"##haupt":2063,"Phil":2064,"##des":2065,"##2,":2066,"führt":2067,"##dienst":2068,"##iels":2069,"Hol":2070,"mehrere":2071,"Seine":2072,"##äten":2073,"Folge":2074,"##19":2075,"blie":2076,"##ift":2077,"Bil":2078,"##are":2079,"##iat":2080,"##mehr":2081,"##onnen":2082,"##xt":2083,"##ätigkeit":2084,"vorge":2085,"##ital":2086,"Den":2087,"the":2088,"Bevölker":2089,"Them":2090,"Sozial":2091,"##reicht":2092,"##gelt":2093,"la":2094,"beh":2095,"##ius":2096,"##gesehen":2097,"##glichen":2098,"uns":2099,"##fel":2100,"Ph":2101,"Bü":2102,"##ändern":2103,"Heim":2104,"Lu":2105,"tatsäch":2106,"or":2107,"gegeben":2108,"Mich":2109,"##ffe":2110,"Wenn":2111,"##alität":2112,"Schrift":2113,"##kam":2114,"##sehen":2115,"Luft":2116,"for":2117,"u":2118,"gemacht":2119,"könne":2120,"Män":2121,"allen":2122,"##wG":2123,"Wochen":2124,"##ings":2125,"##PD":2126,"Ta":2127,"Ru":2128,"##scheid":2129,"3.":2130,"Markt":2131,"Verkehr":2132,"Gut":2133,"Berg":2134,"Ra":2135,"##uren":2136,"umf":2137,"##arbeit":2138,"Ren":2139,"##osition":2140,"##gramm":2141,"##ode":2142,"Natur":2143,"##chten":2144,"##ationalen":2145,"Will":2146,"Zum":2147,"Sein":2148,"##vin":2149,"Char":2150,"stud":2151,"San":2152,"Mitarbeiter":2153,"Regierung":2154,"##unkte":2155,"##ienen":2156,"##ächt":2157,"189":2158,"##hoben":2159,"##echn":2160,"Ost":2161,"##50":2162,"Alb":2163,"Ziel":2164,"##ämpf":2165,"##baren":2166,"Voraus":2167,"musste":2168,"errich":2169,"##alle":2170,"100":2171,"klein":2172,"deutlich":2173,"##setzungen":2174,"##esent":2175,"Mitte":2176,"oft":2177,"##hnt":2178,"##sprün":2179,"##ochter":2180,"##kur":2181,"##rüfung":2182,"Gesellschaft":2183,"##5,":2184,"Weg":2185,"50":2186,"Rn":2187,"##bo":2188,"##geschlossen":2189,"##welt":2190,"Kat":2191,"##riften":2192,"spielte":2193,"20.":2194,"el":2195,"ö":2196,"lange":2197,"##nal":2198,"##lass":2199,"Einsatz":2200,"Fä":2201,"##port":2202,"##opf":2203,"jeden":2204,"setz":2205,"entsprechen":2206,"##immen":2207,"##atten":2208,"##vent":2209,"wenig":2210,"##deten":2211,"##ka":2212,"Sommer":2213,"allein":2214,"sogar":2215,"2017":2216,"Au":2217,"Stre":2218,"führte":2219,"##diglich":2220,"Tor":2221,"Flü":2222,"##4,":2223,"Gebiet":2224,"Mot":2225,"Alt":2226,"##of":2227,"Arch":2228,"Sitz":2229,"Vater":2230,"##km":2231,"schließlich":2232,"Des":2233,"einzel":2234,"##tert":2235,"Weltkrie":2236,"##dorf":2237,"Volks":2238,"finden":2239,"Bedeut":2240,"macht":2241,"jur":2242,"Beschwerde":2243,"lediglich":2244,"##ichter":2245,"##teten":2246,"##stru":2247,"18.":2248,"Beispiel":2249,"Rad":2250,"Nicht":2251,"Staat":2252,"##amten":2253,"##da":2254,"Fir":2255,"##son":2256,"##geord":2257,"ern":2258,"Verfahren":2259,"##wehr":2260,"Wieder":2261,"Zeitpunkt":2262,"##enntnis":2263,"solche":2264,"sehen":2265,"##ilometer":2266,"##richtung":2267,"##halts":2268,"Mutter":2269,"##läuf":2270,"2000":2271,"##räger":2272,"##GH":2273,"##ipp":2274,"br":2275,"##sport":2276,"Wert":2277,"Don":2278,"##liches":2279,"Dieser":2280,"187":2281,"##30":2282,"##wig":2283,"##kir":2284,"##antwort":2285,"##ativ":2286,"Kreis":2287,"##obil":2288,"##gef":2289,"Su":2290,"##aul":2291,"Tr":2292,"handelt":2293,"wohl":2294,"wechsel":2295,"188":2296,"##solv":2297,"Beteil":2298,"Team":2299,"##wür":2300,"Außer":2301,"Voll":2302,"##arm":2303,"##ve":2304,"##ühl":2305,"##hren":2306,"Ehe":2307,"üb":2308,"Amts":2309,"##mb":2310,"##obei":2311,"##äischen":2312,"##ument":2313,"##ied":2314,"##zieh":2315,"##8,":2316,"angeb":2317,"Meister":2318,"Wien":2319,"##führer":2320,"##omit":2321,"Bedeutung":2322,"##6,":2323,"stand":2324,"amerikan":2325,"innerhalb":2326,"Möglich":2327,"##ry":2328,"Ben":2329,"##reuz":2330,"€":2331,"Zug":2332,"##ock":2333,"Sal":2334,"##th":2335,"Peter":2336,"15.":2337,"##ögen":2338,"Je":2339,"Mag":2340,"##lärt":2341,"##gründung":2342,"weniger":2343,"Spr":2344,"##nach":2345,"Erfolg":2346,"##ersön":2347,"bezeichnet":2348,"2003":2349,"##ice":2350,"##legung":2351,"##nungs":2352,"Seite":2353,"##uchte":2354,"Wil":2355,"##oder":2356,"##zeitig":2357,"##hinder":2358,"##aar":2359,"##zip":2360,"##aler":2361,"Mont":2362,"##hard":2363,"§2":2364,"##Un":2365,"##ünd":2366,"##Pro":2367,"alles":2368,"##ären":2369,"##istischen":2370,"(§":2371,"##alis":2372,"1,":2373,"gehörte":2374,"##lager":2375,"wollen":2376,"mei":2377,"##ief":2378,"##oweit":2379,"##utzt":2380,"##reise":2381,"##scher":2382,"Kind":2383,"##fest":2384,"##abhäng":2385,"sicher":2386,"wobei":2387,"Kranken":2388,"(19":2389,"##gruppe":2390,"##burger":2391,"Friedrich":2392,"heut":2393,"Tochter":2394,"##tlich":2395,"Not":2396,"##schließend":2397,"Verfü":2398,"186":2399,"Meter":2400,"##ure":2401,"Straße":2402,"bestimm":2403,"##ose":2404,"##uchs":2405,"besonders":2406,"##anken":2407,"em":2408,"Familien":2409,"entgegen":2410,"##laden":2411,"##vest":2412,"##lärung":2413,"##iar":2414,"trat":2415,"##ilitär":2416,"Krit":2417,"It":2418,"##ase":2419,"##7,":2420,"damals":2421,"Zust":2422,"Problem":2423,"##ote":2424,"##digt":2425,"hoch":2426,"formula":2427,"Angaben":2428,"erfolg":2429,"##stellten":2430,"erreich":2431,"Rep":2432,"deutscher":2433,"##stände":2434,"zus":2435,"2002":2436,"Amer":2437,"##rop":2438,"21":2439,"##ieten":2440,"##anten":2441,"##duz":2442,"##les":2443,"Kn":2444,"##ifiz":2445,"##frist":2446,"fand":2447,"Gebäude":2448,"##fassungs":2449,"Straßen":2450,"##ikt":2451,"zeigt":2452,"##lassen":2453,"##ork":2454,"##uchen":2455,"##etzung":2456,"##itu":2457,"Mannschaft":2458,"##stellungen":2459,"4.":2460,"[unused_punctuation13]":2461,"##int":2462,"11.":2463,"##staat":2464,"##iser":2465,"##ustrie":2466,"##äum":2467,"##FH":2468,"16.":2469,"Nutz":2470,"17.":2471,"Europa":2472,"wahr":2473,"##verhältnis":2474,"Minister":2475,"##ents":2476,"genannt":2477,"##renze":2478,"näch":2479,"mö":2480,"tätig":2481,"verst":2482,"##.,":2483,"Hinter":2484,"##will":2485,"Inform":2486,"##teilt":2487,"würden":2488,"##maß":2489,"USA":2490,"zudem":2491,"Bevölkerung":2492,"Lauf":2493,"##tritt":2494,"40":2495,"not":2496,"##ath":2497,"Komp":2498,"##sbe":2499,"##rik":2500,"##herr":2501,"##schriften":2502,"Entwicklung":2503,"zuvor":2504,"##.)":2505,"Dorf":2506,"Senat":2507,"##ünstler":2508,"Gruppe":2509,"qu":2510,"##eiger":2511,"vergangenen":2512,"Stein":2513,"regel":2514,"Bayern":2515,"Per":2516,"##reibt":2517,"fort":2518,"ind":2519,"##laus":2520,"gesetz":2521,"Beit":2522,"gar":2523,"##sät":2524,"arbeitete":2525,"##scht":2526,"zeit":2527,"##schw":2528,"##amerikan":2529,"Seiten":2530,"acht":2531,"##9,":2532,"grunds":2533,"##schuss":2534,"##sprechend":2535,"##ets":2536,"Betriebs":2537,"findet":2538,"##vertrag":2539,"Bezug":2540,"##pen":2541,"##zus":2542,"Folgen":2543,"Gleich":2544,"Kom":2545,"##ücke":2546,"##VG":2547,"##izin":2548,"##dre":2549,"stellt":2550,"##ehm":2551,"##rug":2552,"##zern":2553,"##aat":2554,"##adem":2555,"inter":2556,"##gehend":2557,"##eils":2558,"grün":2559,"Rolle":2560,"##ungsan":2561,"danach":2562,"##osit":2563,"leben":2564,"Bank":2565,"Raum":2566,"##ürk":2567,"Zwischen":2568,"unterschied":2569,"##sych":2570,"##folge":2571,"Hein":2572,"Damit":2573,"##icherung":2574,"genommen":2575,"14.":2576,"##mbH":2577,"##möglich":2578,"Eltern":2579,"##pflich":2580,"Olymp":2581,"##leben":2582,"Staaten":2583,"##use":2584,"##ller":2585,"Berliner":2586,"##keits":2587,"##SG":2588,"##ichts":2589,"##20":2590,"Frankreich":2591,"ursprün":2592,"2001":2593,"Kor":2594,"trotz":2595,"##bte":2596,"auszu":2597,"liegen":2598,"##etten":2599,"Führ":2600,"äl":2601,"Beginn":2602,"13.":2603,"##blick":2604,"##itter":2605,"Krieg":2606,"##euer":2607,"BVer":2608,"##ettbe":2609,"##bare":2610,"Sü":2611,"##reifen":2612,"##stands":2613,"Cl":2614,"schnell":2615,"höher":2616,"jeder":2617,"##sprechung":2618,"12.":2619,"Rhein":2620,"##adurch":2621,"Außerdem":2622,"##omin":2623,"brit":2624,"Jahrhunderts":2625,"geboren":2626,"##Bl":2627,"blieb":2628,"##ungsbe":2629,"##anischen":2630,"##stoff":2631,"Tran":2632,"besser":2633,"##ksam":2634,"Bru":2635,"##tt":2636,"Herz":2637,"erfolgte":2638,"##pfer":2639,"##liga":2640,"##verkehr":2641,"##fallen":2642,"##ts":2643,"##uen":2644,"verfü":2645,"##zeichnung":2646,"##kel":2647,"sieht":2648,"##ax":2649,"studierte":2650,"Einwohner":2651,"##ergie":2652,"##räsent":2653,"##oc":2654,"##derung":2655,"Antrags":2656,"##sam":2657,"wirtschaft":2658,"Stell":2659,"ließ":2660,"Österreich":2661,"west":2662,"##ael":2663,"wollte":2664,"Schiff":2665,"##schließlich":2666,"Tour":2667,"##verfahren":2668,"##seh":2669,"21.":2670,"##ette":2671,"Kirchen":2672,"Che":2673,"Nachdem":2674,"Bra":2675,"entstanden":2676,"##linie":2677,"##weck":2678,"##uter":2679,"Rat":2680,"##auspiel":2681,"Dr":2682,"darüber":2683,"Hel":2684,"##ana":2685,"General":2686,"##tler":2687,"Wort":2688,"unser":2689,"Zeu":2690,"häuf":2691,"reg":2692,"Fort":2693,"##orge":2694,"##hausen":2695,"nahe":2696,"Pap":2697,"Zeitung":2698,"##attung":2699,"##allen":2700,"##ull":2701,"nieder":2702,"bed":2703,"##schung":2704,"##arif":2705,"Kilometer":2706,"##bringen":2707,"##isse":2708,"vielen":2709,"konnten":2710,"1990":2711,"##gra":2712,"##ix":2713,"##18":2714,"##kosten":2715,"##ammlung":2716,"Gerichts":2717,"##fluss":2718,"Techn":2719,"##ennung":2720,"bevor":2721,"wei":2722,"mal":2723,"##anwalt":2724,"##eier":2725,"##örd":2726,"##ühren":2727,"Berufung":2728,"##ournal":2729,"##II":2730,"##stütz":2731,"ihres":2732,"##wagen":2733,"meist":2734,"Daten":2735,"##zig":2736,"##spiels":2737,"##andels":2738,"##geld":2739,"Tat":2740,"##rand":2741,"Revis":2742,"10.":2743,"Mark":2744,"Köl":2745,"##yr":2746,"höch":2747,"Franz":2748,"Liter":2749,"geworden":2750,"daß":2751,"##wasser":2752,"juris":2753,"##rivat":2754,"and":2755,"alten":2756,"##helm":2757,"Sol":2758,"sieben":2759,"##tens":2760,"John":2761,"31.":2762,"Kommun":2763,"Frü":2764,"##ziehen":2765,"Kraft":2766,"Schm":2767,"##ingt":2768,"verein":2769,"Hei":2770,"##fort":2771,"sowohl":2772,"Zusammenhang":2773,"einfach":2774,"Tätigkeit":2775,"staat":2776,"Süddeut":2777,"##schafts":2778,"Vier":2779,"5.":2780,"##ign":2781,"verschiedenen":2782,"sogen":2783,"30.":2784,"##gebot":2785,"verkauf":2786,"meisten":2787,"Besitz":2788,"##fr":2789,"##napp":2790,"Antragstell":2791,"##Jahr":2792,"##hörde":2793,"Bi":2794,"##dert":2795,"##eller":2796,"##kungen":2797,"Mart":2798,"Red":2799,"##west":2800,"##ützt":2801,"##wech":2802,"Frankfurt":2803,"##nungen":2804,"Sam":2805,"##ders":2806,"##länd":2807,"Aust":2808,"##olle":2809,"Wirtschafts":2810,"##drück":2811,"System":2812,"Res":2813,"hervor":2814,"erneut":2815,"##anstalt":2816,"##wärt":2817,"##reten":2818,"##kret":2819,"berücksicht":2820,"##hilfe":2821,"##markt":2822,"##wur":2823,"##vol":2824,"Vort":2825,"Schauspiel":2826,"##stät":2827,"##tragt":2828,"Sonn":2829,"##hnen":2830,"eigene":2831,"##iken":2832,"##ktionen":2833,"folgenden":2834,"Dan":2835,"##urs":2836,"Gott":2837,"Ak":2838,"Insel":2839,"##loster":2840,"##orgung":2841,"##zwischen":2842,"Grundstück":2843,"##ützen":2844,"##endete":2845,"Rechtsprechung":2846,"##ungsk":2847,"##llig":2848,"##atür":2849,"Thom":2850,"Et":2851,"Preis":2852,"##ino":2853,"Funktion":2854,"Mode":2855,"##ca":2856,"##essor":2857,"gek":2858,"##gegner":2859,"gehen":2860,"##ändert":2861,"##ritte":2862,"Alter":2863,"##ches":2864,"FC":2865,"##/2":2866,"##aren":2867,"##udem":2868,"6.":2869,"beteil":2870,"Gef":2871,"folgt":2872,"##gewiesen":2873,"##laufen":2874,"BGB":2875,"gemeinsam":2876,"Zweiten":2877,"Danach":2878,"Innen":2879,"184":2880,"1999":2881,"Prozess":2882,"ähn":2883,"##verband":2884,"Lage":2885,"europ":2886,"Landkreis":2887,"Karl":2888,"##ollar":2889,"##regierung":2890,"##stieg":2891,"zie":2892,"##ondon":2893,"führen":2894,"##ändig":2895,"kaum":2896,"gegründet":2897,"Verhältnis":2898,"##waltung":2899,"Än":2900,"##nehm":2901,"##undes":2902,"Anlage":2903,"Italien":2904,"##letzt":2905,"Weise":2906,"##gesellschaft":2907,"Tage":2908,"##ative":2909,"##andid":2910,"Gast":2911,"Port":2912,"Kün":2913,"##urm":2914,"##ftig":2915,"##ständigen":2916,"Hamburg":2917,"##rolle":2918,"Zudem":2919,"Sil":2920,"Burg":2921,"finanz":2922,"gehören":2923,"##elte":2924,"7.":2925,"##ziehung":2926,"##10":2927,"erf":2928,"Deutsche":2929,"##die":2930,"Präsident":2931,"Mü":2932,"GmbH":2933,"##spieler":2934,"abzu":2935,"##lässig":2936,"Milliar":2937,"geben":2938,"##itäten":2939,"Begriff":2940,"##len":2941,"Winter":2942,"##PO":2943,"Hans":2944,"wichtig":2945,"##okrat":2946,"Engl":2947,"##iums":2948,"##sprü":2949,"sollten":2950,"Fot":2951,"##sie":2952,"##ivil":2953,"##ille":2954,"Drei":2955,"##under":2956,"##reiten":2957,"kün":2958,"##ült":2959,"Provin":2960,"zweite":2961,"Schü":2962,"verbunden":2963,"Norden":2964,"##schau":2965,"8.":2966,"##alk":2967,"##fft":2968,"##pon":2969,"Außen":2970,"genau":2971,"Wolf":2972,"teilweise":2973,"verwendet":2974,"9.":2975,"##DR":2976,"verpflich":2977,"##anzen":2978,"##ors":2979,"##ligen":2980,"Muse":2981,"geltend":2982,"##immer":2983,"London":2984,"##fahrt":2985,"##emen":2986,"##orp":2987,"##gn":2988,"Dass":2989,"star":2990,"##schlä":2991,"York":2992,"##stimmung":2993,"Paris":2994,"gelegen":2995,"gewählt":2996,"entscheiden":2997,"§3":2998,"Erz":2999,"##rats":3000,"##last":3001,"##fG":3002,"##sitz":3003,"##räsidenten":3004,"##othe":3005,"ebenso":3006,"Kriegs":3007,"zuletzt":3008,"Verfügung":3009,"EUR":3010,"Michael":3011,"##räum":3012,"##zuf":3013,"SPD":3014,"wechselte":3015,"Schwe":3016,"##utet":3017,"Kan":3018,"##ias":3019,"Wald":3020,"ober":3021,"Voraussetzungen":3022,"nörd":3023,"Leistungen":3024,"eröff":3025,"Ba":3026,"##uk":3027,"Ele":3028,"##akter":3029,"Sonntag":3030,"##itze":3031,"kleinen":3032,"##ieß":3033,"Parteien":3034,"##spielsweise":3035,"##fter":3036,"erwar":3037,"Russ":3038,"per":3039,"Verfahrens":3040,"##ling":3041,"##part":3042,"##isiert":3043,"Halb":3044,"Flücht":3045,"##bracht":3046,"gestellt":3047,"Sc":3048,"##rechts":3049,"##DU":3050,"Fehl":3051,"Viel":3052,"##gemeinen":3053,"machte":3054,"Boden":3055,"##itten":3056,"entstand":3057,"erklärt":3058,"##system":3059,"Heimat":3060,"ergibt":3061,"Versicher":3062,"##15":3063,"##han":3064,"Eisen":3065,"##ürz":3066,"end":3067,"##atte":3068,"Bern":3069,"Kampf":3070,"##entscheidung":3071,"Bescheid":3072,"Go":3073,"insoweit":3074,"Thomas":3075,"spe":3076,"eher":3077,"##zirk":3078,"##onn":3079,"Stelle":3080,"Ed":3081,"##barkeit":3082,"darf":3083,"##met":3084,"##arbeiten":3085,"Bek":3086,"Park":3087,"##fehl":3088,"##istische":3089,"könnten":3090,"stellte":3091,"Rund":3092,"##elig":3093,"##rieden":3094,"Klein":3095,"sonst":3096,"##üsse":3097,"Pal":3098,"Wahr":3099,"##akteur":3100,"rechts":3101,"##forderungen":3102,"Schn":3103,"##AG":3104,"unmittel":3105,"22.":3106,"Kauf":3107,"##ain":3108,"##rig":3109,"##eicht":3110,"##orie":3111,"Du":3112,"Begründung":3113,"##ücken":3114,"Vergleich":3115,"##wegen":3116,"SGB":3117,"##ager":3118,"##iko":3119,"Hä":3120,"##ars":3121,"Paul":3122,"Heil":3123,"Regelung":3124,"##unge":3125,"übernahm":3126,"##betrieb":3127,"Merk":3128,"25.":3129,"Eben":3130,"##prochen":3131,"Flä":3132,"##zehn":3133,"Richtung":3134,"nachdem":3135,"Hof":3136,"##ausch":3137,"##radition":3138,"1945":3139,"##berger":3140,"bleibt":3141,"##haben":3142,"bleiben":3143,"BFH":3144,"##ement":3145,"grundsätzlich":3146,"Wor":3147,"erheb":3148,"öffentlichen":3149,"##ationale":3150,"##handen":3151,"erfü":3152,"derzeit":3153,"##ep":3154,"histor":3155,"Milliarden":3156,"Erd":3157,"Spieler":3158,"Medien":3159,"##user":3160,"eingesetzt":3161,"##treter":3162,"##uth":3163,"##ischof":3164,"schle":3165,"##itzt":3166,"Kü":3167,"Stunden":3168,"zuf":3169,"ehemaligen":3170,"##ja":3171,"verd":3172,"Schule":3173,"brach":3174,"weder":3175,"erreicht":3176,"##ance":3177,"Fil":3178,"Zul":3179,"Konzept":3180,"Stat":3181,"hei":3182,"##öhn":3183,"Jose":3184,"erreichte":3185,"##geln":3186,"bew":3187,"##inner":3188,"##ettbewerb":3189,"##frage":3190,"See":3191,"Union":3192,"##80":3193,"nord":3194,"##uellen":3195,"##60":3196,"Main":3197,"##ganisation":3198,"##folger":3199,"##öm":3200,"##rang":3201,"persön":3202,"Antragsgegner":3203,"##ari":3204,"vert":3205,"notwend":3206,"##.12":3207,"lin":3208,"##onen":3209,"entspr":3210,"Osten":3211,"##bescheid":3212,"Internet":3213,"##gelegt":3214,"verz":3215,"Nä":3216,"##richten":3217,"##schl":3218,"60":3219,"##ikation":3220,"Wa":3221,"##schließen":3222,"##hebung":3223,"##setzt":3224,"Thema":3225,"Untersuch":3226,"lag":3227,"Hilfe":3228,"##usst":3229,"ir":3230,"##gebaut":3231,"##amte":3232,"Fr":3233,"##haltung":3234,"beru":3235,"Süden":3236,"darunter":3237,"Har":3238,"##wart":3239,"Möglichkeit":3240,"dagegen":3241,"##zustellen":3242,"Westen":3243,"##ex":3244,"Mitglieder":3245,"Sachver":3246,"Gu":3247,"Stu":3248,"##see":3249,"gelang":3250,"##bruch":3251,"##deck":3252,"28.":3253,"Ern":3254,"damal":3255,"185":3256,"##geführt":3257,"##ong":3258,"##Der":3259,"gewähr":3260,"größten":3261,"Wilhelm":3262,"arb":3263,"23.":3264,"2018":3265,"trägt":3266,"##igkeiten":3267,"Kammer":3268,"Prin":3269,"##fläche":3270,"Vorsitzen":3271,"##woch":3272,"##renzen":3273,"Vert":3274,"weiß":3275,"Rot":3276,"mich":3277,"ja":3278,"Energie":3279,"Dre":3280,"1998":3281,"##ummer":3282,"##verein":3283,"Männer":3284,"##igungs":3285,"##östlich":3286,"Alex":3287,"Grundlage":3288,"##geschichte":3289,"wesent":3290,"tatsächlich":3291,"##liegen":3292,"jün":3293,"Schreiben":3294,"##arch":3295,"beide":3296,"##krä":3297,"##darf":3298,"##li":3299,"Auffassung":3300,"##gliche":3301,"Gold":3302,"Ihre":3303,"Interesse":3304,"##iffer":3305,"Besuch":3306,"##wissenschaft":3307,"##inden":3308,"##ossen":3309,"##ski":3310,"##-,":3311,"kleine":3312,"Blick":3313,"##12":3314,"##asste":3315,"Anwendung":3316,"##sb":3317,"Körper":3318,"24.":3319,"...":3320,"erfolgreich":3321,"26.":3322,"richt":3323,"##lege":3324,"##ole":3325,"##lern":3326,"beschäft":3327,"##yt":3328,"##zeuge":3329,"hält":3330,"##test":3331,"Kreuz":3332,"bestät":3333,"##setzen":3334,"##indest":3335,"##kom":3336,"##seite":3337,"Institut":3338,"Fer":3339,"neun":3340,"Comp":3341,"##rechtlichen":3342,"Nachbar":3343,"gez":3344,"##italien":3345,"häufig":3346,"##ommun":3347,"-,":3348,"knapp":3349,"Kloster":3350,"##yer":3351,"Vertei":3352,"##The":3353,"mittler":3354,"##ösung":3355,"Arbeitnehmer":3356,"##ständige":3357,"##sburg":3358,"##preis":3359,"##athol":3360,"somit":3361,"##wald":3362,"##gangs":3363,"maß":3364,"##ham":3365,"27.":3366,"Aller":3367,"erschien":3368,"##stanz":3369,"einigen":3370,"Ass":3371,"Karr":3372,"beispielsweise":3373,"Bad":3374,"##rakt":3375,"##nisse":3376,"Aufent":3377,"##steil":3378,"Dis":3379,"nächsten":3380,"ung":3381,"##ietet":3382,"Städ":3383,"Antragsteller":3384,"##anc":3385,"Tem":3386,"##wertung":3387,"Theater":3388,"weiterhin":3389,"Liste":3390,"Ermitt":3391,"stellen":3392,"Zeitraum":3393,"##etter":3394,"Üb":3395,"dadurch":3396,"##ürt":3397,"##oge":3398,"##gelassen":3399,"##unkten":3400,"##bten":3401,"außerdem":3402,"errichtet":3403,"Produktion":3404,"Monate":3405,"Maßnahmen":3406,"##üter":3407,"35":3408,"Entscheid":3409,"Parlam":3410,"Auftrag":3411,"Ku":3412,"##spruchs":3413,"##13":3414,"vorhanden":3415,"##äte":3416,"##omen":3417,"##aff":3418,"Studien":3419,"##mitteln":3420,"alte":3421,"##ituation":3422,"zog":3423,"Asy":3424,"russ":3425,"##jährigen":3426,"Archite":3427,"Lud":3428,"##spart":3429,"##off":3430,"Verkehrs":3431,"Privat":3432,"Arbeitgeber":3433,"##dingungen":3434,"Spe":3435,"29.":3436,"Ide":3437,"Gesund":3438,"daran":3439,"Pass":3440,"##rochen":3441,"##mel":3442,"minde":3443,"##hörden":3444,"bestand":3445,"Schaden":3446,"##chter":3447,"##ienten":3448,"##40":3449,"einst":3450,"mindestens":3451,"anges":3452,"##ograf":3453,"genannten":3454,"entfern":3455,"##ört":3456,"Abschluss":3457,"Journal":3458,"Nur":3459,"dahin":3460,"Po":3461,"##estag":3462,"##Er":3463,"##raten":3464,"Bran":3465,"ra":3466,"##gemessen":3467,"Beschäft":3468,"##apan":3469,"Frankfurter":3470,"##ierenden":3471,"Freund":3472,"Schwer":3473,"priv":3474,"Sh":3475,"Mor":3476,"erwä":3477,"zahlreiche":3478,"##stat":3479,"Tri":3480,"##mee":3481,"##langen":3482,"##kraft":3483,"kamen":3484,"##okal":3485,"1980":3486,"Gründen":3487,"(18":3488,"angef":3489,"Con":3490,"##wesen":3491,"##gut":3492,"1970":3493,"Sold":3494,"##vert":3495,"##bank":3496,"Wissenschaft":3497,"Invest":3498,"Tagen":3499,"##pe":3500,"veröffentlicht":3501,"gleichen":3502,"Sicherheits":3503,"Name":3504,"Holz":3505,"Kopf":3506,"mein":3507,"Weltkrieg":3508,"Heinrich":3509,"Brü":3510,"##zentr":3511,"Auto":3512,"nehmen":3513,"##griffen":3514,"##17":3515,"natür":3516,"einger":3517,"Nacht":3518,"Angriff":3519,"Feld":3520,"##wid":3521,"welt":3522,"Woche":3523,"Zukunft":3524,"##änz":3525,"##warz":3526,"Ged":3527,"Vereinigten":3528,"Roman":3529,"länger":3530,"##ica":3531,"##ese":3532,"##altet":3533,"Post":3534,"erhö":3535,"##ama":3536,"Karriere":3537,"pl":3538,"##andeln":3539,"##ses":3540,"##ograph":3541,"gl":3542,"##ichtete":3543,"##kirche":3544,"On":3545,"##oppel":3546,"##leger":3547,"Druck":3548,"##abel":3549,"klar":3550,"##ochten":3551,"Netz":3552,"University":3553,"Mat":3554,"##angs":3555,"##iegel":3556,"setzte":3557,"End":3558,"verschiedene":3559,"Feuer":3560,"starb":3561,"Jur":3562,"##ymn":3563,"Provinz":3564,"##rim":3565,"gep":3566,"##nommen":3567,"offiz":3568,"##schiff":3569,"direkt":3570,"Köln":3571,"##irektor":3572,"##hafen":3573,"veröffentlich":3574,"##eien":3575,"##streck":3576,"jedenfalls":3577,"Georg":3578,"##rise":3579,"##reichend":3580,"Länder":3581,"##ämlich":3582,"jen":3583,"Tele":3584,"Revision":3585,"Album":3586,"erster":3587,"##iete":3588,"Pre":3589,"Max":3590,"##iam":3591,"Hann":3592,"##spiele":3593,"Schüler":3594,"Literatur":3595,"Projekt":3596,"1997":3597,"Dieses":3598,"Mein":3599,"wider":3600,"heutigen":3601,"anders":3602,"Sonder":3603,"2,":3604,"##.10":3605,"##zun":3606,"##dien":3607,"##iellen":3608,"aufgenommen":3609,"voraus":3610,"[unused_punctuation14]":3611,"Nor":3612,"##lieben":3613,"beantragt":3614,"##mitglie":3615,"##ängen":3616,"krit":3617,"##chner":3618,"##ox":3619,"kur":3620,"Verbindung":3621,"1996":3622,"##linge":3623,"##omat":3624,"##leistung":3625,"##rief":3626,"geh":3627,"##arbeitet":3628,"AG":3629,"Monaten":3630,"ant":3631,"Straf":3632,"erklär":3633,"fl":3634,"empf":3635,"##aup":3636,"##uche":3637,"##amens":3638,"moder":3639,"##eiden":3640,"##produ":3641,"Basis":3642,"##med":3643,"oben":3644,"##gent":3645,"nämlich":3646,"Fernseh":3647,"Schloss":3648,"letzte":3649,"bem":3650,"geschlossen":3651,"Eigent":3652,"##sh":3653,"##okument":3654,"Allerdings":3655,"Kurz":3656,"##aktion":3657,"schrieb":3658,"Do":3659,"Bro":3660,"hohen":3661,"##vangel":3662,"##politik":3663,"Nähe":3664,"erhoben":3665,"Kol":3666,"mir":3667,"##sätze":3668,"Auss":3669,"##ösen":3670,"##gemeinde":3671,"Sicherheit":3672,"##lären":3673,"Trainer":3674,"Gesprä":3675,"##tels":3676,"Gar":3677,"ca":3678,"##rid":3679,"##film":3680,"entsprechend":3681,"##yd":3682,"##reisen":3683,"Tal":3684,"begründet":3685,"Kant":3686,"##mannschaft":3687,"##pel":3688,"##ativen":3689,"erw":3690,"französischen":3691,"##roffenen":3692,"Regierungs":3693,"##scheinlich":3694,"##rifft":3695,"laut":3696,"müsse":3697,"##ruf":3698,"Aufgaben":3699,"Mos":3700,"##uelle":3701,"Haft":3702,"bau":3703,"##zeiten":3704,"Bus":3705,"##zentrum":3706,"erfolgt":3707,"unver":3708,"##utzen":3709,"##vier":3710,"##wiegend":3711,"techn":3712,"##lig":3713,"pol":3714,"äußer":3715,"Süddeutsche":3716,"##anien":3717,"Dach":3718,"##iten":3719,"mehreren":3720,"halten":3721,"Künstler":3722,"##ängt":3723,"verurteil":3724,"engl":3725,"Ludwig":3726,"spielt":3727,"Sache":3728,"##asen":3729,"##Be":3730,"Leistung":3731,"##jährige":3732,"gefunden":3733,"Militär":3734,"##etzen":3735,"##get":3736,"Kunden":3737,"##ara":3738,"##ime":3739,"##halte":3740,"Bürgermeister":3741,"italien":3742,"Prä":3743,"Augen":3744,"32":3745,"Angeklag":3746,"1994":3747,"##di":3748,"##gress":3749,"Professor":3750,"anzu":3751,"##16":3752,"##rimin":3753,"spricht":3754,"##over":3755,"ro":3756,"Unterstütz":3757,"##ment":3758,"##lätze":3759,"##Ar":3760,"##wo":3761,"##deckt":3762,"Pla":3763,"leicht":3764,"§4":3765,"##zur":3766,"fä":3767,"Ris":3768,"Ausbildung":3769,"Firma":3770,"##haber":3771,"##wechsel":3772,"##jet":3773,"Bahnhof":3774,"geeig":3775,"Stellung":3776,"##uhr":3777,"alt":3778,"Text":3779,"##denk":3780,"genutzt":3781,"Häl":3782,"Öff":3783,"setzt":3784,"schl":3785,"Mitt":3786,"##ruktur":3787,"Robert":3788,"zumindest":3789,"Dann":3790,"solchen":3791,"hinsichtlich":3792,"Beim":3793,"##zugs":3794,"##.3":3795,"180":3796,"Kaiser":3797,"absolv":3798,"Sicht":3799,"##geladen":3800,"##wurf":3801,"erziel":3802,"1960":3803,"##wegung":3804,"Leiter":3805,"##ines":3806,"konk":3807,"##ivid":3808,"ste":3809,"Martin":3810,"Tre":3811,"##innt":3812,"1995":3813,"Gebur":3814,"##denburg":3815,"##eichen":3816,"Tier":3817,"geführt":3818,"vertreten":3819,"##yl":3820,"Dollar":3821,"##onat":3822,"III":3823,"Mil":3824,"regelmäßig":3825,"folgte":3826,"##ymnas":3827,"bestimmt":3828,"einzelnen":3829,"##ählen":3830,"dritten":3831,"##.11":3832,"##line":3833,"politischen":3834,"selten":3835,"Zus":3836,"Hälfte":3837,"##onds":3838,"##uell":3839,"##dner":3840,"Baum":3841,"Bereits":3842,"überhaupt":3843,"Andre":3844,"##amer":3845,"Pa":3846,"angefochten":3847,"wissenschaft":3848,"Verhalten":3849,"##ierungen":3850,"Denk":3851,"Graf":3852,"gesp":3853,"Förder":3854,"amerikanischen":3855,"##Aus":3856,"##hte":3857,"Leistungs":3858,"##.-":3859,"##zunehmen":3860,"inzwischen":3861,"Studium":3862,"##ppe":3863,"verloren":3864,"##ammt":3865,"Lö":3866,"sofort":3867,"##ikel":3868,"##verl":3869,"##kan":3870,"Christian":3871,"##iew":3872,"##isierung":3873,"Os":3874,"besten":3875,"##säch":3876,"##üm":3877,"##StG":3878,"Interessen":3879,"erm":3880,"##kampf":3881,"##ror":3882,"##schungs":3883,"eng":3884,"##lauben":3885,"DDR":3886,"Gemeinden":3887,"Bor":3888,"183":3889,"##osoph":3890,"Wo":3891,"unmittelbar":3892,"darin":3893,"unterst":3894,"##unn":3895,"##/9":3896,"stär":3897,"Gestalt":3898,"1992":3899,"berichtet":3900,"Kolle":3901,"jeweiligen":3902,"##25":3903,"verlie":3904,"befinden":3905,"nimmt":3906,"##fähigkeit":3907,"##erseits":3908,"##rax":3909,"ZPO":3910,"Tages":3911,"##reitag":3912,"Chef":3913,"##ision":3914,"Russland":3915,"Pfarr":3916,"##zul":3917,"##sprüche":3918,"Einkommen":3919,"##ali":3920,"##ague":3921,"##nier":3922,"##weiter":3923,"Gruppen":3924,"Bundestag":3925,"Kern":3926,"Schweiz":3927,"Schweizer":3928,"bedeuten":3929,"##ließt":3930,"Umwelt":3931,"##heira":3932,"##14":3933,"gekommen":3934,"##Sp":3935,"33":3936,"Handels":3937,"Zwar":3938,"Alle":3939,"##stoß":3940,"##ament":3941,"##sprach":3942,"##gänger":3943,"##ution":3944,"Gi":3945,"Deb":3946,"Zweck":3947,"Ap":3948,"Übrigen":3949,"tragen":3950,"Minuten":3951,"vorgesehen":3952,"keiner":3953,"Af":3954,"##länder":3955,"##eth":3956,"##handlungen":3957,"##legten":3958,"Personal":3959,"Zuge":3960,"##echnet":3961,"zug":3962,"##roll":3963,"Beweis":3964,"Vertra":3965,"Programm":3966,"Miss":3967,"zeigen":3968,"Bruder":3969,"##ward":3970,"##ffer":3971,"##alz":3972,"##güt":3973,"Schon":3974,"verk":3975,"Wirkung":3976,"##leg":3977,"Stutt":3978,"##fan":3979,"##herap":3980,"##serv":3981,"##orben":3982,"verpflichtet":3983,"Reise":3984,"##lock":3985,"anderer":3986,"Norm":3987,"##ima":3988,"km":3989,"Sied":3990,"Air":3991,"##temberg":3992,"##inge":3993,"Politiker":3994,"Wind":3995,"Erm":3996,"Redakteur":3997,"##eten":3998,"##barung":3999,"##zeichen":4000,"zei":4001,"##Mit":4002,"enthalten":4003,"Bür":4004,"Vermögen":4005,"##werke":4006,"##zeugen":4007,"##park":4008,"##schinen":4009,"##oper":4010,"##ölf":4011,"##wen":4012,"tun":4013,"Umfang":4014,"##70":4015,"vergleich":4016,"erreichen":4017,"maßgeb":4018,"##üge":4019,"Ausland":4020,"Typ":4021,"par":4022,"Antragstellerin":4023,"##ozial":4024,"##versicherung":4025,"ausdrück":4026,"##örm":4027,"Inst":4028,"80":4029,"dürfen":4030,"##ise":4031,"bald":4032,"Asyl":4033,"österreich":4034,"Sieg":4035,"##ufe":4036,"##rächt":4037,"unabhäng":4038,"##unternehmen":4039,"70":4040,"##dacht":4041,"Oper":4042,"##erner":4043,"Mittwoch":4044,"##ona":4045,"Reihe":4046,"Beurteil":4047,"gebracht":4048,"Com":4049,"##klich":4050,"##rep":4051,"##werbe":4052,"##nt":4053,"ausschließlich":4054,"Elekt":4055,"##äher":4056,"##unsch":4057,"bin":4058,"##iens":4059,"größte":4060,"Lo":4061,"##ile":4062,"##seit":4063,"##kap":4064,"Einsch":4065,"CDU":4066,"##ielleicht":4067,"Hen":4068,"Unterstützung":4069,"##teile":4070,"ausgeführt":4071,"##streit":4072,"##ministerium":4073,"aufzu":4074,"norm":4075,"Nachfolger":4076,"1993":4077,"beste":4078,"elekt":4079,"##gement":4080,"Far":4081,"##ool":4082,"ursprünglich":4083,"kehr":4084,"##auern":4085,"##spekt":4086,"Vo":4087,"##iment":4088,"Weltmeister":4089,"##pft":4090,"Schä":4091,"Mer":4092,"Ott":4093,"##lingen":4094,"Betracht":4095,"enthält":4096,"Verhandlung":4097,"Ton":4098,"##techn":4099,"verhinder":4100,"##digungs":4101,"##75":4102,"Orts":4103,"##iegen":4104,"Stift":4105,"Ball":4106,"Fällen":4107,"älter":4108,"Leip":4109,"Wein":4110,"Start":4111,"Bot":4112,"##Jähr":4113,"##flug":4114,"##bin":4115,"Tats":4116,"1991":4117,"Früh":4118,"##kund":4119,"Europäischen":4120,"Industrie":4121,"##zin":4122,"jähr":4123,"Rich":4124,"zuge":4125,"Grö":4126,"Beteiligten":4127,"1950":4128,"Macht":4129,"§5":4130,"produz":4131,"##ielle":4132,"soweit":4133,"China":4134,"##zahlen":4135,"##rück":4136,"eigentlich":4137,"einzige":4138,"sozi":4139,"##istik":4140,"Montag":4141,"Count":4142,"##recher":4143,"##öpf":4144,"##ieter":4145,"anschließend":4146,"Motor":4147,"##ademie":4148,"##acher":4149,"##Ber":4150,"##werber":4151,"##frau":4152,"fiel":4153,"hohe":4154,"##uck":4155,"Freitag":4156,"##issenschaften":4157,"zerst":4158,"##anzler":4159,"##fon":4160,"##by":4161,"Tarif":4162,"01":4163,"##har":4164,"vorliegenden":4165,"lau":4166,"Mel":4167,"Fragen":4168,"bringen":4169,"vorher":4170,"verletzt":4171,"Brand":4172,"##ae":4173,"##auch":4174,"As":4175,"31":4176,"Aufgabe":4177,"internationalen":4178,"Ord":4179,"münd":4180,"##Stand":4181,"Unternehmens":4182,"Pres":4183,"Rang":4184,"Prüfung":4185,"organis":4186,"hinzu":4187,"0,":4188,"Les":4189,"##wjet":4190,"##gart":4191,"hal":4192,"##bürger":4193,"exist":4194,"##berecht":4195,"App":4196,"##wohnern":4197,"##züglich":4198,"entschieden":4199,"Soldaten":4200,"neuer":4201,"##ständen":4202,"Beigeladen":4203,"Strecke":4204,"##zut":4205,"##reibung":4206,"##achtet":4207,"erforderlich":4208,"##gebung":4209,"##losen":4210,"1989":4211,"zent":4212,"##bü":4213,"##Welt":4214,"##ada":4215,"##4.":4216,"besuchte":4217,"welches":4218,"Linie":4219,"Dazu":4220,"bislang":4221,"##jen":4222,"##atik":4223,"ak":4224,"##ots":4225,"##iente":4226,"##mut":4227,"Bestand":4228,"##aly":4229,"behaup":4230,"ehemalige":4231,"##üsseld":4232,"##\"-":4233,"##aill":4234,"entwickelt":4235,"Gründe":4236,"bezeich":4237,"Disk":4238,"verf":4239,"Wegen":4240,"Lang":4241,"45":4242,"Fel":4243,"##ierter":4244,"land":4245,"##anlage":4246,"Sprache":4247,"Richter":4248,"Anschluss":4249,"##osen":4250,"Heraus":4251,"##ames":4252,"Abend":4253,"ergeben":4254,"Armee":4255,"##ümer":4256,"Dav":4257,"##strecke":4258,"erklärte":4259,"Bundesregierung":4260,"Liga":4261,"##eilen":4262,"früheren":4263,"##ffend":4264,"Imm":4265,"##wGO":4266,"Sachsen":4267,"Verkauf":4268,"streit":4269,"##spielen":4270,"##ährung":4271,"Aufl":4272,"##how":4273,"##arte":4274,"##2.":4275,"Grenze":4276,"##lehr":4277,"##SU":4278,"##win":4279,"##holt":4280,"Maria":4281,"##funk":4282,"##rank":4283,"Fluss":4284,"Super":4285,"Senats":4286,"##ollen":4287,"##erv":4288,"BVerwG":4289,"##dür":4290,"##ane":4291,"##wahr":4292,"##elten":4293,"GG":4294,"##ringt":4295,"Aktien":4296,"spielen":4297,"Ir":4298,"is":4299,"##lanzen":4300,"##langt":4301,"##wind":4302,"##gegeben":4303,"Teile":4304,"##richtungen":4305,"Landtag":4306,"Publik":4307,"##orte":4308,"Opfer":4309,"folgende":4310,"verfol":4311,"Kritik":4312,"##kra":4313,"##tegr":4314,"##riech":4315,"##Al":4316,"Baden":4317,"36":4318,"##alif":4319,"Berufs":4320,"Zin":4321,"##zy":4322,"##West":4323,"##ierende":4324,"##ktor":4325,"##führungen":4326,"gefähr":4327,"wenige":4328,"##hnung":4329,"##reiber":4330,"Düsseld":4331,"TV":4332,"##gelöst":4333,"Trotz":4334,"obwohl":4335,"##weile":4336,"Spielen":4337,"##olge":4338,"Abgeord":4339,"##raxis":4340,"Stamm":4341,"##leiter":4342,"Ul":4343,"Situation":4344,"Serie":4345,"##De":4346,"##rechte":4347,"Heute":4348,"Col":4349,"Hor":4350,"dro":4351,"Ist":4352,"##stellungs":4353,"Licht":4354,"Ersten":4355,"Reichs":4356,"sah":4357,"##stab":4358,"##mo":4359,"Schluss":4360,"VwGO":4361,"vollständig":4362,"gesamten":4363,"Kommission":4364,"##digte":4365,"##solvenz":4366,"Einfluss":4367,"##erischen":4368,"Vertreter":4369,"Bezeichnung":4370,"Arbeiten":4371,"angemessen":4372,"kompl":4373,"erkenn":4374,"umfasst":4375,"Är":4376,"##ränkt":4377,"##führten":4378,"##besser":4379,"##ücksichtigung":4380,"Fig":4381,"Hauptstadt":4382,"entfernt":4383,"##aterial":4384,"Dauer":4385,"politische":4386,"##struktur":4387,"Kab":4388,"##45":4389,"##rhein":4390,"Verband":4391,"##regel":4392,"Just":4393,"med":4394,"Ang":4395,"##denten":4396,"damaligen":4397,"begrün":4398,"Donner":4399,"##sa":4400,"##mund":4401,"##alifiz":4402,"##ielten":4403,"indem":4404,"##anger":4405,"##gült":4406,"##ildet":4407,"Spiele":4408,"WM":4409,"Bef":4410,"Tür":4411,"##3.":4412,"hingegen":4413,"Volk":4414,"Meer":4415,"Wohnung":4416,"##rige":4417,"offenbar":4418,"##gebäude":4419,"zwölf":4420,"##heiratet":4421,"Ländern":4422,"Gesetzes":4423,"Sing":4424,"Gr":4425,"##ley":4426,"##leistungen":4427,"Stück":4428,"##ton":4429,"entspricht":4430,"##1)":4431,"##rägen":4432,"##band":4433,"jede":4434,"gesamte":4435,"langen":4436,"##:2":4437,"##rags":4438,"##hlen":4439,"##jekte":4440,"##riff":4441,"##ausschuss":4442,"##statt":4443,"Gewinn":4444,"Gefahr":4445,"##ädchen":4446,"bietet":4447,"##dam":4448,"Landgericht":4449,"bestimmten":4450,"Dro":4451,"##90":4452,"Weil":4453,"Besonder":4454,"##dro":4455,"Sand":4456,"klass":4457,"Lager":4458,"##allel":4459,"##Se":4460,"Insolvenz":4461,"##redit":4462,"##ession":4463,"##ungsverfahren":4464,"##anspruch":4465,"##98":4466,"##gemeinschaft":4467,"Rede":4468,"selben":4469,"Rein":4470,"beteiligt":4471,"veröffentlichte":4472,"Informationen":4473,"posit":4474,"Arten":4475,"90":4476,"Sub":4477,"##ikal":4478,"Dreh":4479,"##utlich":4480,"##uchten":4481,"##öffentlich":4482,"Zentrum":4483,"Wettbewerb":4484,"stammt":4485,"##umm":4486,"Verlag":4487,"Mad":4488,"benannt":4489,"beträgt":4490,"Museum":4491,"##aille":4492,"gute":4493,"##dessen":4494,"##zirks":4495,"Test":4496,"veran":4497,"##orgungs":4498,"treffen":4499,"##schafter":4500,"Dres":4501,"Erfahr":4502,"##respon":4503,"vorläuf":4504,"##prüfung":4505,"##westen":4506,"zugleich":4507,"##ologischen":4508,"##gefähr":4509,"Bach":4510,"wiederum":4511,"britischen":4512,"##zif":4513,"##weist":4514,"erinn":4515,"##volution":4516,"gebe":4517,"Vide":4518,"Hintergrund":4519,"##kräfte":4520,"##reib":4521,"sagen":4522,"Viele":4523,"##uster":4524,"##reitet":4525,"arbeiten":4526,"Wal":4527,"Pop":4528,"##ola":4529,"Darüber":4530,"bekommen":4531,"Strom":4532,"bilden":4533,"erle":4534,"prom":4535,"erkennen":4536,"##macht":4537,"##inal":4538,"mittel":4539,"##nü":4540,"anerk":4541,"##ios":4542,"welcher":4543,"Ander":4544,"erwähnt":4545,"Japan":4546,"du":4547,"Noch":4548,"##ürttemberg":4549,"Partner":4550,"##diger":4551,"##förm":4552,"\"(":4553,"Syn":4554,"gründete":4555,"##nam":4556,"Histor":4557,"Konkur":4558,"Anforderungen":4559,"##asil":4560,"Mc":4561,"letzt":4562,"34":4563,"schloss":4564,"stammen":4565,"Anteil":4566,"dürfte":4567,"ausger":4568,"##lassung":4569,"gebaut":4570,"Prem":4571,"Renten":4572,"Truppen":4573,"Del":4574,"Republik":4575,"##ertig":4576,"Hinblick":4577,"röm":4578,"Stuttgart":4579,"eröffnet":4580,"##gruppen":4581,"aktiv":4582,"##dungs":4583,"##istisch":4584,"Regen":4585,"stra":4586,"Stil":4587,"Punkt":4588,"##denken":4589,"##ständnis":4590,"##Ab":4591,"##3)":4592,"Angebot":4593,"bekannte":4594,"England":4595,"Münchner":4596,"##aters":4597,"Aufgrund":4598,"##weisung":4599,"##selben":4600,"##bli":4601,"Fa":4602,"##raucht":4603,"##achst":4604,"##rael":4605,"brachte":4606,"erschienen":4607,"##richter":4608,"##spro":4609,"##änden":4610,"Türk":4611,"Werke":4612,"betrieb":4613,"europäischen":4614,"##wendungen":4615,"di":4616,"##24":4617,"einzu":4618,"William":4619,"##ragen":4620,"gehalten":4621,"##wirkung":4622,"##:0":4623,"Öffent":4624,"##\"),":4625,"##bestand":4626,"Ausnahme":4627,"rel":4628,"##abrik":4629,"Chem":4630,"##que":4631,"Donnerstag":4632,"Pri":4633,"Div":4634,"Verpflicht":4635,"##35":4636,"##ziger":4637,"##igungen":4638,"##dens":4639,"vö":4640,"Dom":4641,"Fen":4642,"##ählte":4643,"übernommen":4644,"##runde":4645,"##linik":4646,"38":4647,"Kenntnis":4648,"Olympischen":4649,"##imeter":4650,"vielmehr":4651,"Hal":4652,"Ep":4653,"Empf":4654,"BGH":4655,"##laubt":4656,"mussten":4657,"##rak":4658,"##.199":4659,"##ferenz":4660,"junge":4661,"gesetzlichen":4662,"Nachrichten":4663,"##staaten":4664,"Inhalt":4665,"##ehmigung":4666,"Pflicht":4667,"Offen":4668,"##finale":4669,"bisherigen":4670,"##ochen":4671,"Johannes":4672,"kont":4673,"Dienstag":4674,"Weitere":4675,"##gebracht":4676,"§§":4677,"##schech":4678,"League":4679,"##antrag":4680,"##itte":4681,"##own":4682,"##iller":4683,"##reite":4684,"Position":4685,"##rab":4686,"beginnt":4687,"Verordnung":4688,"##ügel":4689,"##mes":4690,"##derungen":4691,"Nun":4692,"Gesicht":4693,"##vorsitzen":4694,"Kapital":4695,"Nutzung":4696,"##arbeits":4697,"Ernst":4698,"zusätzlich":4699,"##flächen":4700,"##78":4701,"##mand":4702,"()":4703,"jedem":4704,"gleichzeitig":4705,"500":4706,"festgestellt":4707,"Behörden":4708,"##ash":4709,"##leitung":4710,"Beamten":4711,"SZ":4712,"##istenz":4713,"uner":4714,"##ufer":4715,"verantwort":4716,"##staur":4717,"typ":4718,"kathol":4719,"Bilder":4720,"entsprechenden":4721,"weiterer":4722,"##vo":4723,"##nern":4724,"vorzu":4725,"##DP":4726,"sozial":4727,"erfüllt":4728,"##2)":4729,"##äne":4730,"##tell":4731,"umfassen":4732,"zugrund":4733,"Doppel":4734,"Verantwort":4735,"##ordnungs":4736,"Bischof":4737,"Nation":4738,"##mittelt":4739,"sogenannten":4740,"##ome":4741,"Ehren":4742,"##gemäß":4743,"großer":4744,"Bundesver":4745,"SG":4746,"1988":4747,"##ils":4748,"##ena":4749,"öffentlich":4750,"##heben":4751,"##äische":4752,"##ish":4753,"##eis":4754,"##ike":4755,"Veranstalt":4756,"##Reg":4757,"Pe":4758,"##Mar":4759,"Forschungs":4760,"##lecht":4761,"zunehmen":4762,"legte":4763,"verlassen":4764,"Pil":4765,"näher":4766,"Gesundheits":4767,"##komm":4768,"bl":4769,"südlich":4770,"David":4771,"Wechsel":4772,"##pol":4773,"Organ":4774,"##Re":4775,"##ight":4776,"##ta":4777,"##ateg":4778,"##zeitung":4779,"##spe":4780,"##7.":4781,"##züge":4782,"späteren":4783,"zweit":4784,"Herbst":4785,"Sinn":4786,"##umb":4787,"##brit":4788,"sod":4789,"hielt":4790,"absolvierte":4791,"französische":4792,"Modell":4793,"##achung":4794,"außerhalb":4795,"Szen":4796,"spezie":4797,"##formen":4798,"zusätz":4799,"Klaus":4800,"§6":4801,"Jan":4802,"##kunden":4803,"kauf":4804,"##zwei":4805,"Gewalt":4806,"Star":4807,"Ansicht":4808,"##urg":4809,"Ortsteil":4810,"Annahme":4811,"Stellen":4812,"[unused_punctuation0]":4813,"besitzt":4814,"Viz":4815,"##gemeine":4816,"FG":4817,"Antragsgegnerin":4818,"ganze":4819,"versucht":4820,"Umsatz":4821,"berücksichtigen":4822,"##republik":4823,"##ki":4824,"Psych":4825,"##fälle":4826,"##23":4827,"##immung":4828,"##11":4829,"##erweise":4830,"entwickelte":4831,"Ruhe":4832,"Kindern":4833,"Frieden":4834,"bedeutet":4835,"##legte":4836,"abgeschlossen":4837,"interess":4838,"##amb":4839,"##agd":4840,"Presse":4841,"befand":4842,"bildet":4843,"##gien":4844,"##zert":4845,"##mächt":4846,"000":4847,"##zahlung":4848,"##gton":4849,"zulässig":4850,"##lad":4851,"Pet":4852,"daraus":4853,"##azz":4854,"Flughafen":4855,"gesehen":4856,"Verbrauch":4857,"##anne":4858,"##riebe":4859,"##ftigen":4860,"stets":4861,"lebt":4862,"##auftrag":4863,"Vertrags":4864,"Sim":4865,"##cks":4866,"##aub":4867,"Gründung":4868,"##4)":4869,"Krankenhaus":4870,"##ischem":4871,"Zeiten":4872,"##ckey":4873,"aut":4874,"fal":4875,"BVerfG":4876,"rück":4877,"frühen":4878,"nördlich":4879,"Gesetzgeber":4880,"##renzt":4881,"jungen":4882,"Grie":4883,"zufolge":4884,"##plant":4885,"zahlen":4886,"Waffen":4887,"Alexander":4888,"Fläche":4889,"Top":4890,"Polen":4891,"##view":4892,"se":4893,"##schä":4894,"paar":4895,"##tur":4896,"##agn":4897,"##6.":4898,"wirklich":4899,"##fahrer":4900,"prakt":4901,"Behandlung":4902,"belie":4903,"Eisenbahn":4904,"##wander":4905,"##usch":4906,"Hannover":4907,"Hinweis":4908,"To":4909,"Qualität":4910,"##ail":4911,"##durch":4912,"##werte":4913,"Kandid":4914,"##ameister":4915,"Mädchen":4916,"Umstände":4917,"##kunde":4918,"##ival":4919,"##gner":4920,"genü":4921,"entsprechende":4922,"Punkte":4923,"##spl":4924,"##.2013":4925,"unge":4926,"Bö":4927,"Krank":4928,"Brit":4929,"##illa":4930,"eingesch":4931,"##abl":4932,"##Ein":4933,"haupt":4934,"##1-":4935,"##za":4936,"##geschäft":4937,"weg":4938,"reich":4939,"##gels":4940,"heira":4941,"Verwendung":4942,"##lose":4943,"fanden":4944,"##aust":4945,"##ährt":4946,"##sem":4947,"##spf":4948,"Vergüt":4949,"##bauten":4950,"beruht":4951,"Rechte":4952,"##respondent":4953,"##Kon":4954,"Entwick":4955,"ausdrücklich":4956,"##5.":4957,"##uern":4958,"sä":4959,"Änderung":4960,"Zeugen":4961,"prof":4962,"Alters":4963,"##ländischen":4964,"sach":4965,"Leitung":4966,"##6)":4967,"übrigen":4968,"durchgeführt":4969,"erhält":4970,"Falle":4971,"bereit":4972,"##va":4973,"folgen":4974,"Var":4975,"Wege":4976,"Berufungs":4977,"Präsidenten":4978,"Salz":4979,"##EG":4980,"Aufnahme":4981,"##stud":4982,"##präsident":4983,"##ffel":4984,"Saint":4985,"scheint":4986,"Schlacht":4987,"##falen":4988,"##7)":4989,"Zusammenarbeit":4990,"erscheint":4991,"Exper":4992,"1972":4993,"Auslegung":4994,"##.06":4995,"Stad":4996,"Gesell":4997,"übertragen":4998,"##ahnen":4999,"Leipzig":5000,"Düsseldorf":5001,"Lehrer":5002,"Zweifel":5003,"##ante":5004,"##ware":5005,"gewonnen":5006,"##bliothe":5007,"angenommen":5008,"beein":5009,"Kamer":5010,"geplan":5011,"endgült":5012,"##versorgung":5013,"überra":5014,"Gegensatz":5015,"##fried":5016,"Hoff":5017,"verkauft":5018,"Parlament":5019,"City":5020,"zugelassen":5021,"Königs":5022,"##mark":5023,"jüd":5024,"verheiratet":5025,"##häuser":5026,"##rechtliche":5027,"##pa":5028,"wissen":5029,"Tro":5030,"##kretär":5031,"Pflege":5032,"##Urt":5033,"Probleme":5034,"Organisation":5035,"reag":5036,"kehrte":5037,"Medizin":5038,"Anzahl":5039,"Später":5040,"##str":5041,"daraufhin":5042,"getroffen":5043,"arbeitet":5044,"Unfall":5045,"##rüfen":5046,"völlig":5047,"berufen":5048,"IV":5049,"##.07":5050,"##ernen":5051,"Deutschlands":5052,"##irn":5053,"##chester":5054,"##forderung":5055,"Anton":5056,"derart":5057,"##.2014":5058,"gegrün":5059,"verlä":5060,"##iversität":5061,"Schließlich":5062,"##altung":5063,"zuständig":5064,"##ktions":5065,"entstehen":5066,"allgemeinen":5067,"##abt":5068,"ernannt":5069,"##kont":5070,"bestimmte":5071,"Jetzt":5072,"Göt":5073,"##grenze":5074,"Philipp":5075,"##ymb":5076,"Gre":5077,"3,":5078,"##ymnasium":5079,"Gespräch":5080,"Herren":5081,"Vorschrift":5082,"neues":5083,"##gesetzes":5084,"beschäftigt":5085,"gra":5086,"Schlag":5087,"##wegs":5088,"schrift":5089,"##insel":5090,"##sein":5091,"County":5092,"Bör":5093,"Feststellung":5094,"Tim":5095,"##abil":5096,"##kord":5097,"überwiegend":5098,"Mensch":5099,"zivil":5100,"Bron":5101,"##vention":5102,"##ones":5103,"Bill":5104,"Führung":5105,"##ziehungs":5106,"##derte":5107,"allgemein":5108,"tradition":5109,"##ören":5110,"##sache":5111,"Monat":5112,"##alition":5113,"##üten":5114,"##britann":5115,"##sser":5116,"sprechen":5117,"sprach":5118,"##ene":5119,"##Vor":5120,"Trum":5121,"Viertel":5122,"##ake":5123,"Bücher":5124,"Leute":5125,"Laut":5126,"##anische":5127,"zugrunde":5128,"Prot":5129,"Einwohnern":5130,"zahlreichen":5131,"Glück":5132,"[unused_punctuation5]":5133,"diente":5134,"##mens":5135,"Karls":5136,"fahr":5137,"1987":5138,"Hessen":5139,"sub":5140,"Insgesamt":5141,"##ffekt":5142,"##sprache":5143,"Silber":5144,"##go":5145,"vermutlich":5146,"##abend":5147,"Tex":5148,"Grenz":5149,"##cc":5150,"türk":5151,"natürlich":5152,"##laut":5153,"Exp":5154,"##gern":5155,"pass":5156,"individ":5157,"ausgeschlossen":5158,"verg":5159,"Det":5160,"##.03":5161,"vern":5162,"##sträger":5163,"##zeugt":5164,"Auswahl":5165,"Sänger":5166,"Banken":5167,"##mm":5168,"Carl":5169,"Studenten":5170,"Artikel":5171,"Fassung":5172,"betrach":5173,"##erei":5174,"1933":5175,"Rie":5176,"Arzt":5177,"Regelungen":5178,"griech":5179,"Samstag":5180,"##laubnis":5181,"Wagen":5182,"Spanien":5183,"##ala":5184,"Dah":5185,"mag":5186,"##28":5187,"##olden":5188,"##pfel":5189,"##kä":5190,"##wirkungen":5191,"##anlagen":5192,"bestätigt":5193,"##füll":5194,"qualifiz":5195,"Kündigung":5196,"##sä":5197,"Han":5198,"##famil":5199,"##änglich":5200,"##verfahrens":5201,"geschaffen":5202,"Länge":5203,"##geschoss":5204,"##rechtlich":5205,"##strahl":5206,"Gä":5207,"besondere":5208,"##SA":5209,"##änderung":5210,"Behörde":5211,"##Che":5212,"jedes":5213,"Fe":5214,"##echnung":5215,"Anlagen":5216,"Runde":5217,"älte":5218,"früh":5219,"ersetzt":5220,"Geburt":5221,"##.2012":5222,"Drit":5223,"Lü":5224,"Erkenntnis":5225,"##ith":5226,"Themen":5227,"Verwaltung":5228,"Großbritann":5229,"Soweit":5230,"verurteilt":5231,"Wesent":5232,"Holl":5233,"Champ":5234,"Stadtteil":5235,"Best":5236,"beschrieben":5237,"##programm":5238,"##lö":5239,"##38":5240,"##weich":5241,"##ologische":5242,"37":5243,"##bildungs":5244,"300":5245,"Anschließend":5246,"##stätte":5247,"##ouver":5248,"bele":5249,"gewinnen":5250,"hol":5251,"Konfl":5252,"Pr":5253,"Dist":5254,"weiteres":5255,"fehlt":5256,"##gin":5257,"##ickt":5258,"präsent":5259,"dient":5260,"Fahrzeug":5261,"Rud":5262,"Prüf":5263,"Urteils":5264,"##ßt":5265,"##ziplin":5266,"Richard":5267,"Rückkehr":5268,"##9.":5269,"##iefer":5270,"##.04":5271,"Mosk":5272,"Vorschriften":5273,"##stimmungen":5274,"poln":5275,"##kammer":5276,"##igkeits":5277,"Pflanzen":5278,"wenigen":5279,"vielleicht":5280,"Grab":5281,"##aur":5282,"Relig":5283,"angeboten":5284,"Bundesliga":5285,"1930":5286,"Bekannt":5287,"##peratur":5288,"##Bahn":5289,"Verfassungs":5290,"##Ge":5291,"##/8":5292,"##rechnung":5293,"Stimmen":5294,"weltweit":5295,"##halle":5296,"Darstellung":5297,"1984":5298,"Türkei":5299,"##hafte":5300,"##ries":5301,"beleg":5302,"##Wir":5303,"relativ":5304,"##aben":5305,"1978":5306,"##klärung":5307,"##trages":5308,"##lehen":5309,"Hart":5310,"Otto":5311,"##beit":5312,"##ärzt":5313,"betrieben":5314,"Vergangen":5315,"1986":5316,"Erwä":5317,"Gutachten":5318,"##zahlt":5319,"militär":5320,"##sächlich":5321,"##sichts":5322,"##tlichen":5323,"1985":5324,"Kre":5325,"##läub":5326,"##gehr":5327,"Gewerbe":5328,"Wehr":5329,"mittlerweile":5330,"Ress":5331,"International":5332,"Philosoph":5333,"Richtlinie":5334,"jüng":5335,"##alsozial":5336,"irgend":5337,"##örung":5338,"1920":5339,"##65":5340,"Club":5341,"##zum":5342,"##hnte":5343,"##gewöhn":5344,"##schauer":5345,"Veröffentlich":5346,"##ict":5347,"##teils":5348,"##ftige":5349,"mündlichen":5350,"Finale":5351,"schwier":5352,"verlor":5353,"##lichkeiten":5354,"Charakter":5355,"##adrat":5356,"rech":5357,"Beurteilung":5358,"##ld":5359,"##male":5360,"##üst":5361,"rei":5362,"##hington":5363,"##itzer":5364,"Matt":5365,"Vereins":5366,"richtig":5367,"##ical":5368,"ersichtlich":5369,"dauer":5370,"##andt":5371,"Deshalb":5372,"Grünen":5373,"##linien":5374,"Kirch":5375,"##32":5376,"1974":5377,"Wolfgang":5378,"1975":5379,"Struktur":5380,"##ini":5381,"Fo":5382,"Garten":5383,"##)\"":5384,"Rest":5385,"anderes":5386,"##maßnahmen":5387,"ru":5388,"Train":5389,"##gründe":5390,"##schläge":5391,"Papst":5392,"##steiger":5393,"150":5394,"stieg":5395,"##einträcht":5396,"##gestalt":5397,"##reund":5398,"läng":5399,"ausgezeichnet":5400,"Sä":5401,"Pan":5402,"##unsten":5403,"Lou":5404,"Wall":5405,"Staatsanwalt":5406,"##aufnahme":5407,"Hit":5408,"heiratete":5409,"zurückge":5410,"zutre":5411,"##orfen":5412,"galt":5413,"##ksamkeit":5414,"Trans":5415,"##48":5416,"Beide":5417,"Trump":5418,"##itionen":5419,"##werden":5420,"##ätzung":5421,"##oment":5422,"Hu":5423,"1938":5424,"weist":5425,"##SV":5426,"Sprach":5427,"kennen":5428,"erzählt":5429,"##orgt":5430,"##itar":5431,"1968":5432,"Ke":5433,"##ney":5434,"##fred":5435,"##.09":5436,"Firmen":5437,"Gegenstand":5438,"Konzern":5439,"öffentliche":5440,"##stete":5441,"dur":5442,"Standard":5443,"##ikanischen":5444,"##zieht":5445,"##ular":5446,"Auft":5447,"##isierte":5448,"##--":5449,"Glas":5450,"##wissenschaften":5451,"Angel":5452,"hieß":5453,"Qualif":5454,"Turm":5455,"##itiat":5456,"Kron":5457,"solcher":5458,"Ausführungen":5459,"Blut":5460,"Colle":5461,"Win":5462,"##\").":5463,"##way":5464,"amerikanische":5465,"##95":5466,"##punkte":5467,"##mot":5468,"##Ges":5469,"##9)":5470,"##itsch":5471,"schreibt":5472,"##ehrt":5473,"Kontakt":5474,"##bi":5475,"Fahrer":5476,"Müller":5477,"##hauses":5478,"Denkmal":5479,"Sem":5480,"Leit":5481,"kosten":5482,"fällt":5483,"##22":5484,"##baut":5485,"Reform":5486,"Str":5487,"##lehnt":5488,"##waff":5489,"##vertreten":5490,"Griechen":5491,"##dt":5492,"##worben":5493,"Rand":5494,"§8":5495,"##partem":5496,"weitgehend":5497,"wahrscheinlich":5498,"##far":5499,"Terror":5500,"Patienten":5501,"##sum":5502,"##geschrieben":5503,"##97":5504,"Joseph":5505,"res":5506,"stärker":5507,"##ause":5508,"Aktiv":5509,"Schön":5510,"Dat":5511,"Mess":5512,"möchte":5513,"zurückzu":5514,"##gungs":5515,"##.05":5516,"Inner":5517,"##reig":5518,"##tent":5519,"Bon":5520,"##fragen":5521,"herr":5522,"##iers":5523,"Rennen":5524,"Bezirks":5525,"angefochtenen":5526,"##äh":5527,"Versicherungs":5528,"##ämpfen":5529,"Ersatz":5530,"##fordert":5531,"##bs":5532,"##nei":5533,"Ach":5534,"Nik":5535,"##achtung":5536,"##hofs":5537,"##wärts":5538,"Allgemeinen":5539,"##kor":5540,"##fecht":5541,"Ehefrau":5542,"Schwarz":5543,"##.2011":5544,"##itur":5545,"Klasse":5546,"##gesprochen":5547,"##ikaner":5548,"Vorsitzender":5549,"##.02":5550,"Gas":5551,"lauf":5552,"unzu":5553,"##ester":5554,"##erien":5555,"begonnen":5556,"begl":5557,"vorbei":5558,"eindeut":5559,"##arzt":5560,"Autob":5561,"Herrschaft":5562,"at":5563,"Versorgung":5564,"##eind":5565,"Ausdruck":5566,"1940":5567,"angegeben":5568,"guten":5569,"Ca":5570,"Städte":5571,"##ago":5572,"##chmal":5573,"Tiere":5574,"Widerspruch":5575,"##ürn":5576,"Vergangenheit":5577,"##beg":5578,"##garten":5579,"Bem":5580,"benöt":5581,"##26":5582,"Regisse":5583,"Rock":5584,"Öl":5585,"Washington":5586,"##westlich":5587,"##arbeitung":5588,"##chem":5589,"Fehler":5590,"betreffen":5591,"Hochschule":5592,"Hotel":5593,"##zähl":5594,"Vom":5595,"Wiener":5596,"ausreichen":5597,"1982":5598,"Ros":5599,"international":5600,"Versorgungs":5601,"Zahlung":5602,"psych":5603,"##Württemberg":5604,"Direktor":5605,"##lers":5606,"Schauspieler":5607,"beruf":5608,"steuer":5609,"Öffentlichkeit":5610,"##führte":5611,"monat":5612,"1983":5613,"erzielte":5614,"Na":5615,"##cel":5616,"Bla":5617,"Schmid":5618,"funktion":5619,"Maschinen":5620,"##ano":5621,"eingestellt":5622,"tä":5623,"##irm":5624,"größer":5625,"zeigte":5626,"Einige":5627,"einf":5628,"durchschnitt":5629,"##ya":5630,"##höhe":5631,"men":5632,"mehrfach":5633,"1944":5634,"##fig":5635,"stell":5636,"unabhängig":5637,"geschrieben":5638,"BSG":5639,"Angeklagten":5640,"Arbeiter":5641,"Spitzen":5642,"##67":5643,"Termin":5644,"Zivil":5645,"ermöglich":5646,"##trem":5647,"##ördert":5648,"kommenden":5649,"erstre":5650,"##stu":5651,"Todes":5652,"Zustand":5653,"Merkel":5654,"##bus":5655,"Wel":5656,"##stattung":5657,"Brief":5658,"##tragung":5659,"1939":5660,"##odell":5661,"Lab":5662,"Obwohl":5663,"berücksichtigt":5664,"##verwaltung":5665,"Chor":5666,"##uert":5667,"bekam":5668,"Vollstreck":5669,"##hoch":5670,"Justiz":5671,"Großbritannien":5672,"Wür":5673,"##änn":5674,"##gänge":5675,"Gelände":5676,"ähnlich":5677,"##Weltmeister":5678,"zentr":5679,"##Stra":5680,"##RW":5681,"##indungen":5682,"verfügt":5683,"Fenster":5684,"Bericht":5685,"gericht":5686,"##istan":5687,"##Jährige":5688,"Beitrag":5689,"##zog":5690,"Verbr":5691,"zit":5692,"##ford":5693,"##holz":5694,"Zinsen":5695,"Gewicht":5696,"Erb":5697,"wichtige":5698,"Koalition":5699,"Kop":5700,"##ifferenz":5701,"##imal":5702,"##fil":5703,"Umgebung":5704,"##.).":5705,"##räume":5706,"##Universität":5707,"sogenannte":5708,"##üh":5709,"##.08":5710,"Stock":5711,"##atein":5712,"##ädt":5713,"1969":5714,"ausgeb":5715,"dritte":5716,"Ereig":5717,"Anordnung":5718,"hierzu":5719,"schön":5720,"Miet":5721,"##onach":5722,"angesehen":5723,"Sig":5724,"Moder":5725,"he":5726,"Beschl":5727,"Bauern":5728,"##fühl":5729,"##digen":5730,"##versammlung":5731,"Minde":5732,"##alog":5733,"1971":5734,"##hörigen":5735,"##eige":5736,"##Nr":5737,"Alten":5738,"##ranken":5739,"Pfer":5740,"trifft":5741,"Bebau":5742,"Standort":5743,"ernst":5744,"1973":5745,"##ktiv":5746,"angesichts":5747,"Dokument":5748,"1979":5749,"##fertigt":5750,"teilte":5751,"Zuf":5752,"größere":5753,"##err":5754,"##une":5755,"Franc":5756,"Hig":5757,"Dresden":5758,"##eton":5759,"##stritten":5760,"Renn":5761,"##54":5762,"##68":5763,"Wol":5764,"entdeckt":5765,"geeignet":5766,"##onie":5767,"##law":5768,"Hermann":5769,"Geheim":5770,"Größe":5771,"festge":5772,"wichtigsten":5773,"George":5774,"##sweise":5775,"##endung":5776,"Rö":5777,"Metho":5778,"1976":5779,"Leg":5780,"##afft":5781,"##swahl":5782,"##fähig":5783,"##serie":5784,"Flüchtlinge":5785,"##iziert":5786,"pre":5787,"Zulassung":5788,"##ziehungen":5789,"##gert":5790,"##.2010":5791,"Liebe":5792,"verantwortlich":5793,"##/200":5794,"Kra":5795,"##blatt":5796,"Kateg":5797,"Technik":5798,"geringer":5799,"Dipl":5800,"##Bundes":5801,"##Le":5802,"Rech":5803,"##ätze":5804,"##ville":5805,"Bud":5806,"##rick":5807,"wonach":5808,"gezeigt":5809,"betrug":5810,"##ritz":5811,"Bildung":5812,"##stant":5813,"##gungen":5814,"Jung":5815,"Akten":5816,"##hor":5817,"Schu":5818,"Frist":5819,"##nehmung":5820,"besonderen":5821,"Schwester":5822,"##vollmächt":5823,"48":5824,"##ruhe":5825,"##pfen":5826,"##ico":5827,"vorgenommen":5828,"##afr":5829,"##liefer":5830,"Schulen":5831,"Zentral":5832,"##haften":5833,"##andelte":5834,"wären":5835,"chines":5836,"Kanton":5837,"sämt":5838,"tritt":5839,"##alifor":5840,"östlich":5841,"Teilnehmer":5842,"##amerikanischer":5843,"##zusetzen":5844,"##do":5845,"Zahlen":5846,"##äume":5847,"##jahres":5848,"##Jahrhundert":5849,"Hall":5850,"Beigeladenen":5851,"Wesentlichen":5852,"##ros":5853,"##werks":5854,"Ermessen":5855,"##ändler":5856,"##mitglied":5857,"##34":5858,"jem":5859,"Instrum":5860,"Vorhaben":5861,"##21":5862,"##wachsen":5863,"##zuführen":5864,"##ädag":5865,"##Kl":5866,"inform":5867,"jährlich":5868,"privaten":5869,"##otte":5870,"Zür":5871,"Schles":5872,"russischen":5873,"##VO":5874,"Kin":5875,"Entscheidungen":5876,"Weiß":5877,"Jahrzehn":5878,"##amerikanischen":5879,"beob":5880,"Ablauf":5881,"Geist":5882,"wor":5883,"Flor":5884,"##weder":5885,"prä":5886,"39":5887,"Blatt":5888,"##landes":5889,"##deutsch":5890,"Andreas":5891,"##üste":5892,"Geschäftsführer":5893,"Landwirtschaft":5894,"##herapie":5895,"Fund":5896,"jünger":5897,"gingen":5898,"##rät":5899,"möglicherweise":5900,"Sö":5901,"ziehen":5902,"Albert":5903,"wes":5904,"evangel":5905,"Frühjahr":5906,"Ster":5907,"##aliforn":5908,"Erklärung":5909,"##ulen":5910,"1981":5911,"##sätzen":5912,"Prom":5913,"1977":5914,"##eck":5915,"##werten":5916,"Aussage":5917,"elf":5918,"##polit":5919,"Verlauf":5920,"Gottes":5921,"Web":5922,"größeren":5923,"Idee":5924,"hauptsächlich":5925,"##ux":5926,"##ida":5927,"##ordnet":5928,"Lok":5929,"Kontrolle":5930,"UN":5931,"Jer":5932,"medizin":5933,"kleiner":5934,"Vorgänger":5935,"Verletzung":5936,"##ötz":5937,"##eisen":5938,"wohn":5939,"Gegner":5940,"##widrig":5941,"erkennbar":5942,"westlich":5943,"##bezogen":5944,"##jenigen":5945,"Erwerb":5946,"##,00":5947,"Metern":5948,"##igem":5949,"##bezirk":5950,"Abschnitt":5951,"Grundsatz":5952,"Juden":5953,"Real":5954,"hil":5955,"Hause":5956,"##ärm":5957,"##seits":5958,"Kä":5959,"##einer":5960,"##fiel":5961,"tran":5962,"Zugang":5963,"Kollegen":5964,"bas":5965,"stellvertreten":5966,"Ker":5967,"ausreichend":5968,"##fehler":5969,"##lätter":5970,"übersch":5971,"Zun":5972,"Sant":5973,"##öffnung":5974,"Verlust":5975,"verhindern":5976,"##spunkte":5977,"178":5978,"##ologe":5979,"##ositionen":5980,"##führen":5981,"[unused_punctuation6]":5982,"##behörde":5983,"##eiert":5984,"##TV":5985,"ff":5986,"##ängnis":5987,"solle":5988,"##scheidet":5989,"zählt":5990,"lebte":5991,"##33":5992,"Kla":5993,"erwarten":5994,"Orig":5995,"Herzog":5996,"##nimmt":5997,"##ftet":5998,"Tradition":5999,"Bestimmung":6000,"Brun":6001,"schwar":6002,"##LG":6003,"Berat":6004,"##zte":6005,"##StBl":6006,"Königreich":6007,"##rennt":6008,"##hielten":6009,"##74":6010,"Tabe":6011,"Verfol":6012,"Los":6013,"##schine":6014,"1946":6015,"Praxis":6016,"##64":6017,"Arm":6018,"##sprung":6019,"##vel":6020,"Ast":6021,"##72":6022,"Sum":6023,"warum":6024,"leich":6025,"folgten":6026,"##netz":6027,"##ichert":6028,"##beschluss":6029,"##schulen":6030,"promov":6031,"##uro":6032,"##gewicht":6033,"##uther":6034,"400":6035,"##spolitik":6036,"Entscheidungs":6037,"Einen":6038,"##Auf":6039,"##strafe":6040,"Grenzen":6041,"##erkennung":6042,"##ary":6043,"Lied":6044,"Akademie":6045,"##ata":6046,"setzen":6047,"##bliothek":6048,"##ulation":6049,"dire":6050,"##klus":6051,"Bezirk":6052,"begehr":6053,"##ugen":6054,"##geschlagen":6055,"bestehenden":6056,"##wenden":6057,"##wässer":6058,"kor":6059,"Hom":6060,"Glauben":6061,"Widerspruchs":6062,"##.2015":6063,"gehörten":6064,"##industrie":6065,"defin":6066,"##ieden":6067,"sodass":6068,"##gest":6069,"Verz":6070,"Zweit":6071,"##inett":6072,"einheit":6073,"durchaus":6074,"Rum":6075,"bringt":6076,"##iede":6077,"##hi":6078,"einschließlich":6079,"Rett":6080,"##liefert":6081,"##endes":6082,"##achter":6083,"##freiheit":6084,"Kredit":6085,"Walter":6086,"Durchführung":6087,"Mehrheit":6088,"Ag":6089,"Get":6090,"Fernsehen":6091,"##ätzen":6092,"Güter":6093,"##stehenden":6094,"Jean":6095,"Punkten":6096,"##auber":6097,"##any":6098,"Nürn":6099,"fün":6100,"fr":6101,"Unabhäng":6102,"offiziell":6103,"##Bo":6104,"##schte":6105,"Ausgleich":6106,"geprägt":6107,"konkreten":6108,"ganzen":6109,"##Land":6110,"Josef":6111,"brauch":6112,"##eitete":6113,"entlang":6114,"zer":6115,"##musik":6116,"gesetzt":6117,"##rau":6118,"reicht":6119,"Computer":6120,"gemeinsamen":6121,"Betrag":6122,"schaffen":6123,"verstär":6124,"Samm":6125,"disk":6126,"##row":6127,"##ymbol":6128,"Träger":6129,"##wak":6130,"##mon":6131,"Krieges":6132,"##siehe":6133,"44":6134,"Daher":6135,"notwendig":6136,"##omot":6137,"##namen":6138,"Kr":6139,"1967":6140,"gerecht":6141,"##azin":6142,"Rechtsanwalt":6143,"verh":6144,"##auen":6145,"##klar":6146,"Sprecher":6147,"Demokrat":6148,"##beck":6149,"Ac":6150,"orient":6151,"##öne":6152,"65":6153,"##garn":6154,"Jazz":6155,"Laufe":6156,"Arn":6157,"##eide":6158,"##forschung":6159,"Zuschauer":6160,"Opp":6161,"##wirken":6162,"BStBl":6163,"fertig":6164,"Einführung":6165,"Organis":6166,"Umstand":6167,"##heimer":6168,"reduz":6169,"##prozess":6170,"angegriffen":6171,"##ichteten":6172,"##.2009":6173,"EStG":6174,"Auseinander":6175,"##29":6176,"1965":6177,"##ießen":6178,"##kirchen":6179,"##ble":6180,"verfassungs":6181,"historischen":6182,"##nee":6183,"Jul":6184,"##klasse":6185,"Hamburger":6186,"to":6187,"1964":6188,"Kommand":6189,"komp":6190,"Bal":6191,"zerstört":6192,"Einrichtung":6193,"##versicher":6194,"Turnier":6195,"##arischen":6196,"##ace":6197,"Mand":6198,"##immel":6199,"##mat":6200,"bein":6201,"##etzten":6202,"scheiter":6203,"##Pf":6204,"engag":6205,"Erlass":6206,"dienen":6207,"##oth":6208,"Feststellungen":6209,"##irche":6210,"trotzdem":6211,"unterstützt":6212,"NRW":6213,"##ba":6214,"erwei":6215,"Stern":6216,"##renn":6217,"##reform":6218,"##union":6219,"verp":6220,"##upp":6221,"Hilfs":6222,"##imme":6223,"fe":6224,"##astrop":6225,"##üssen":6226,"künftig":6227,"##Dezember":6228,"##instanz":6229,"Restaur":6230,"##greifen":6231,"##vertei":6232,"Entgelt":6233,"1966":6234,"Nordrhein":6235,"Cent":6236,"Tätig":6237,"Darauf":6238,"##III":6239,"Tatsachen":6240,"##gers":6241,"##com":6242,"##lands":6243,"belegte":6244,"Arg":6245,"##Westfalen":6246,"plan":6247,"Fischer":6248,"55":6249,"wesentlich":6250,"Verteidigung":6251,"Weihn":6252,"##zeichnungen":6253,"ident":6254,"Rechnung":6255,"mel":6256,"Ank":6257,"Tom":6258,"James":6259,"##ican":6260,"##ikations":6261,"nationalen":6262,"##73":6263,"Staffel":6264,"Amerika":6265,"NS":6266,"dennoch":6267,"Kas":6268,"##gram":6269,"##Urteil":6270,"Rob":6271,"Übernahme":6272,"Rundfunk":6273,"Bre":6274,"Bew":6275,"Phys":6276,"Halle":6277,"Beteiligung":6278,"nunmehr":6279,"Erinner":6280,"Bedingungen":6281,"Lux":6282,"blo":6283,"##sequ":6284,"Hör":6285,"##omie":6286,"Vorstand":6287,"Bundesrepublik":6288,"##ita":6289,"geplant":6290,"##DA":6291,"##neter":6292,"bay":6293,"##ühle":6294,"##bek":6295,"internationale":6296,"Eigentümer":6297,"##finden":6298,"Inn":6299,"Belast":6300,"niedr":6301,"##usern":6302,"erwartet":6303,"ausgegangen":6304,"##liste":6305,"gehabt":6306,"steigen":6307,"Islam":6308,"Namens":6309,"Frem":6310,"Wissen":6311,"##press":6312,"Anlass":6313,"##ähler":6314,"##künfte":6315,"Nummer":6316,"neg":6317,"##wirt":6318,"Fahrzeuge":6319,"##ric":6320,"1948":6321,"vorliegend":6322,"Job":6323,"Großen":6324,"Anhalt":6325,"Besucher":6326,"Grad":6327,"##bauen":6328,"Ausgang":6329,"##Juni":6330,"Wen":6331,"Song":6332,"Version":6333,"Gab":6334,"##März":6335,"Rh":6336,"Publikum":6337,"##76":6338,"erscheinen":6339,"nutzen":6340,"opt":6341,"Wh":6342,"##ato":6343,"frühere":6344,"Bom":6345,"Essen":6346,"Darlehen":6347,"Gewerk":6348,"gere":6349,"Autom":6350,"##lingt":6351,"Urlaub":6352,"schweren":6353,"Durchschnitt":6354,"unbegründet":6355,"max":6356,"##Unter":6357,"wollten":6358,"Statt":6359,"verbr":6360,"##arts":6361,"gespielt":6362,"1962":6363,"##ynam":6364,"Risiko":6365,"VI":6366,"Ansprüche":6367,"##sucht":6368,"Wild":6369,"vereinbar":6370,"##lings":6371,"Offiz":6372,"fühl":6373,"gering":6374,"Gattung":6375,"##En":6376,"Ehr":6377,"erstes":6378,"##verbot":6379,"umfang":6380,"britische":6381,"kommun":6382,"geboten":6383,"verließ":6384,"##bis":6385,"staatlichen":6386,"genug":6387,"verläuft":6388,"##ritor":6389,"##orten":6390,"1961":6391,"Journalisten":6392,"[unused_punctuation17]":6393,"##cl":6394,"Morgen":6395,"Award":6396,"##stimmen":6397,"Ritter":6398,"##hemat":6399,"italienischen":6400,"Verpflichtung":6401,"ergän":6402,"gesagt":6403,"##windigkeit":6404,"Interview":6405,"##Das":6406,"Bundeswehr":6407,"##ams":6408,"1963":6409,"##ssel":6410,"Waren":6411,"Geschä":6412,"1958":6413,"Fac":6414,"Hafen":6415,"##sekretär":6416,"betroffen":6417,"##ötet":6418,"Vielmehr":6419,"wirkte":6420,"Insbesondere":6421,"##ürgen":6422,"##Ch":6423,"Rel":6424,"Schriftsteller":6425,"aktuellen":6426,"Fünf":6427,"4,":6428,"##deutschen":6429,"##äst":6430,"##Chef":6431,"##cy":6432,"##Komm":6433,"##izei":6434,"Online":6435,"Kurs":6436,"##ssatz":6437,"Täter":6438,"Radio":6439,"Eich":6440,"einzelne":6441,"##ional":6442,"##ologen":6443,"Haushalts":6444,"##ungsplan":6445,"erinnert":6446,"hinreichend":6447,"##iber":6448,"Zeitschrift":6449,"Gran":6450,"Sto":6451,"Angst":6452,"##dienste":6453,"##spunkt":6454,"##Pl":6455,"Schwar":6456,"Anh":6457,"fra":6458,"standen":6459,"75":6460,"Moskau":6461,"##istin":6462,"Foto":6463,"##icken":6464,"##leiben":6465,"ehemaliger":6466,"##riester":6467,"##27":6468,"Wohl":6469,"1952":6470,"Cor":6471,"##ancen":6472,"Erzb":6473,"##ftware":6474,"##36":6475,"##tliche":6476,"##wäl":6477,"Herkunft":6478,"##car":6479,"##.4":6480,"CSU":6481,"##kohol":6482,"fallen":6483,"##dy":6484,"bezogen":6485,"OVG":6486,"##emente":6487,"heim":6488,"Versuch":6489,"Daneben":6490,"##wood":6491,"##39":6492,"Komment":6493,"Ergebnisse":6494,"Dpartem":6495,"Unternehmer":6496,"wolle":6497,"##weite":6498,"Camp":6499,"##arkt":6500,"Untersuchung":6501,"Klub":6502,"Wachst":6503,"##gesp":6504,"##orth":6505,"Schritt":6506,"sozialen":6507,"##trags":6508,"1000":6509,"Nah":6510,"##ünden":6511,"Spielzeit":6512,"##ration":6513,"Brasil":6514,"ehr":6515,"##gesetzten":6516,"Bremen":6517,"1943":6518,"Zeichen":6519,"FDP":6520,"##wertet":6521,"schul":6522,"##hls":6523,"##betrag":6524,"Wirk":6525,"##SC":6526,"Immobil":6527,"##din":6528,"Minder":6529,"wuchs":6530,"abger":6531,"van":6532,"##verkehrs":6533,"Teilen":6534,"Diskuss":6535,"##änen":6536,"berichtete":6537,"Anna":6538,"sinn":6539,"beschlossen":6540,"##rete":6541,"##hagen":6542,"gesund":6543,"Brem":6544,"Wand":6545,"Sar":6546,"##Ne":6547,"##finanz":6548,"abgelehnt":6549,"vorüber":6550,"##hlet":6551,"##bedingungen":6552,"Studie":6553,"Aufhebung":6554,"Jak":6555,"##organisation":6556,"##sorge":6557,"entweder":6558,"belegt":6559,"Verstoß":6560,"##eligi":6561,"Schweden":6562,"eingeführt":6563,"günst":6564,"##spar":6565,"unterb":6566,"##ringen":6567,"##dingt":6568,"tatsächlichen":6569,"lebten":6570,"rein":6571,"##bra":6572,"1949":6573,"Sex":6574,"##komp":6575,"##schüt":6576,"vertei":6577,"nöt":6578,"##anb":6579,"##gas":6580,"##enter":6581,"Dra":6582,"##ausend":6583,"##handlungs":6584,"geändert":6585,"##ieur":6586,"offensichtlich":6587,"Dafür":6588,"##reif":6589,"bewaff":6590,"##ij":6591,"Höhen":6592,"verlänger":6593,"German":6594,"##.2008":6595,"##ua":6596,"Jac":6597,"##teilen":6598,"ständig":6599,"##arl":6600,"beendete":6601,"##po":6602,"##sicher":6603,"leitete":6604,"untersch":6605,"geblieben":6606,"höchsten":6607,"##gesell":6608,"erheblich":6609,"Vorbringen":6610,"##ited":6611,"##iti":6612,"42":6613,"##Januar":6614,"##zo":6615,"##Te":6616,"My":6617,"parallel":6618,"##Mai":6619,"##gliedert":6620,"##akten":6621,"(200":6622,"gezogen":6623,"##funktion":6624,"College":6625,"Gal":6626,"erworben":6627,"##ibel":6628,"##orfer":6629,"mensch":6630,"Hum":6631,"bekannten":6632,"möglichst":6633,"on":6634,"##üssel":6635,"##gestaltung":6636,"##stär":6637,"##ender":6638,"##ps":6639,"beeinfl":6640,"Autoren":6641,"rechten":6642,"Veran":6643,"##staats":6644,"##antwor":6645,"Wortlaut":6646,"Flucht":6647,"##zeugung":6648,"Paar":6649,"1941":6650,"Analy":6651,"##östlichen":6652,"Vir":6653,"##anad":6654,"##utzung":6655,"##oben":6656,"vorgetragen":6657,"Mö":6658,"##zenz":6659,"erfolgen":6660,"verstehen":6661,"darum":6662,"##stock":6663,"##bereit":6664,"schwed":6665,"##schef":6666,"meine":6667,"wachsen":6668,"1956":6669,"##kehrt":6670,"Mord":6671,"##meter":6672,"##plätze":6673,"##anzig":6674,"Rd":6675,"hel":6676,"erwarb":6677,"##anen":6678,"Verbraucher":6679,"##aun":6680,"##geleitet":6681,"##lowak":6682,"1942":6683,"##71":6684,"##96":6685,"##steigen":6686,"Konzert":6687,"Video":6688,"##ook":6689,"##reiter":6690,"##fällen":6691,"Meisterschaft":6692,"letztlich":6693,"##sm":6694,"läuft":6695,"##rollen":6696,"##agement":6697,"nennt":6698,"pf":6699,"tief":6700,"##ics":6701,"Eingriff":6702,"Stefan":6703,"##gerecht":6704,"intens":6705,"Sowjet":6706,"Einheit":6707,"##uliert":6708,"Quart":6709,"##ächs":6710,"Produkt":6711,"unsere":6712,"##mögen":6713,"gleichnam":6714,"heutige":6715,"##tegie":6716,"Münster":6717,"##änderungen":6718,"verliehen":6719,"##Meter":6720,"müssten":6721,"zieht":6722,"##ZR":6723,"wies":6724,"##höhung":6725,"Lösung":6726,"Schriftsatz":6727,"berecht":6728,"dre":6729,"Material":6730,"##bart":6731,"##usion":6732,"Mobil":6733,"Bühne":6734,"##tend":6735,"Altern":6736,"unbek":6737,"##stern":6738,"Umständen":6739,"##abe":6740,"##93":6741,"Niederlan":6742,"Brandenburg":6743,"##DF":6744,"##rüft":6745,"Ressort":6746,"1959":6747,"Aktion":6748,"##abeth":6749,"Jack":6750,"Stahl":6751,"##chst":6752,"Stiftung":6753,"##empl":6754,"ört":6755,"46":6756,"weshalb":6757,"##hneh":6758,"Massen":6759,"Mex":6760,"aust":6761,"##krit":6762,"##itiative":6763,"Forschung":6764,"##Es":6765,"##hnehin":6766,"Bonn":6767,"Bildungs":6768,"##ente":6769,"##BA":6770,"ausgehen":6771,"Spitze":6772,"links":6773,"##agentur":6774,"trug":6775,"Friedhof":6776,"Trin":6777,"bieten":6778,"Schuld":6779,"Polit":6780,"Sammlung":6781,"Wur":6782,"Ganz":6783,"Hon":6784,"mater":6785,"Kindes":6786,"Philosophie":6787,"##ücht":6788,"Krä":6789,"##ählten":6790,"Regisseur":6791,"##örderung":6792,"##eral":6793,"Persön":6794,"Cal":6795,"preuß":6796,"##ralien":6797,"Einzelfall":6798,"Abitur":6799,"Häuser":6800,"##icks":6801,"Ja":6802,"letzter":6803,"Op":6804,"1957":6805,"Champions":6806,"##absicht":6807,"lok":6808,"##sper":6809,"Schwier":6810,"##digten":6811,"gerne":6812,"##fiz":6813,"##merk":6814,"möglichen":6815,"##Or":6816,"ph":6817,"Mass":6818,"Parlaments":6819,"##leisch":6820,"aufgehoben":6821,"##92":6822,"objekt":6823,"Sm":6824,"##itäts":6825,"Kapit":6826,"Sonnen":6827,"zählen":6828,"##ühm":6829,"Vereinbarung":6830,"School":6831,"nahezu":6832,"Antragstellers":6833,"Thr":6834,"##kündigt":6835,"##entwicklung":6836,"##cup":6837,"ehe":6838,"Kal":6839,"Roy":6840,"Bu":6841,"Abteilung":6842,"##otten":6843,"zuläss":6844,"##baum":6845,"Teilnahme":6846,"##lant":6847,"Chance":6848,"mass":6849,"Absatz":6850,"ausgetragen":6851,"Zeich":6852,"führten":6853,"Ann":6854,"linken":6855,"Ukra":6856,"Tenn":6857,"Ruf":6858,"blieben":6859,"bekom":6860,"##standes":6861,"Quadrat":6862,"##lanz":6863,"westlichen":6864,"##ordin":6865,"##gentin":6866,"Ans":6867,"Naturschutz":6868,"##alisierung":6869,"ZR":6870,"Gelegen":6871,"kultur":6872,"##iedlung":6873,"##erie":6874,"Flächen":6875,"##dauer":6876,"Mindest":6877,"##würdig":6878,"Kompon":6879,"Kanzler":6880,"forderte":6881,"Spezial":6882,"breit":6883,"##aku":6884,"##stö":6885,"##kommt":6886,"##mittag":6887,"##annter":6888,"##gal":6889,"##eicher":6890,"Aufenthalt":6891,"wirtschaftliche":6892,"1947":6893,"##brauch":6894,"Louis":6895,"Lohn":6896,"Besatz":6897,"zutreffend":6898,"1955":6899,"##bericht":6900,"##grundlage":6901,"Cast":6902,"erfahren":6903,"##retung":6904,"Quellen":6905,"Ausstellung":6906,"##handel":6907,"Israel":6908,"##leit":6909,"##46":6910,"Tore":6911,"##dels":6912,"##etzungen":6913,"Klima":6914,"##ois":6915,"Feuerwehr":6916,"diver":6917,"##nitz":6918,"##ügen":6919,"nächste":6920,"##55":6921,"##wider":6922,"Vortrag":6923,"Förderung":6924,"1953":6925,"umstritten":6926,"##barer":6927,"Hersteller":6928,"bestanden":6929,"dargestellt":6930,"##bring":6931,"Jes":6932,"Kongress":6933,"Wunsch":6934,"##liegenden":6935,"##wirk":6936,"Immer":6937,"Anwalt":6938,"mitge":6939,"1954":6940,"zeich":6941,"außen":6942,"##schm":6943,"endete":6944,"Mik":6945,"wid":6946,"rechtlichen":6947,"meint":6948,"##übung":6949,"Zürich":6950,"##gy":6951,"vierten":6952,"43":6953,"##ohlen":6954,"Architekten":6955,"Mannschaften":6956,"Vorder":6957,"betre":6958,"Evangel":6959,"Gemeinder":6960,"##hten":6961,"##lätzen":6962,"halb":6963,"##sachsen":6964,"Leicht":6965,"##val":6966,"No":6967,"Betroffenen":6968,"##grad":6969,"##unkel":6970,"lief":6971,"##wendungs":6972,"persönlichen":6973,"##ouverne":6974,"schlecht":6975,"Fans":6976,"niemand":6977,"##fäl":6978,"##öglichen":6979,"EM":6980,"##ographie":6981,"staatliche":6982,"##ask":6983,"##lichten":6984,"Metall":6985,"##gro":6986,"manchmal":6987,"Transport":6988,"##94":6989,"Zustimmung":6990,"Vis":6991,"##pag":6992,"Log":6993,"höheren":6994,"##iste":6995,"englischen":6996,"##EU":6997,"##pret":6998,"Heiligen":6999,"zweimal":7000,"Nationalsozial":7001,"##andte":7002,"Hy":7003,"namens":7004,"geltenden":7005,"##Ex":7006,"##ungspflicht":7007,"Maler":7008,"Soc":7009,"Herrn":7010,"##häl":7011,"##maßen":7012,"##stall":7013,"Erde":7014,"erforderlichen":7015,"Schmidt":7016,"##nicht":7017,"Formel":7018,"##edes":7019,"Rechtsschutz":7020,"##stätten":7021,"Betreu":7022,"##ghan":7023,"##iveau":7024,"hergestellt":7025,"Rec":7026,"##geordnet":7027,"##mäßigen":7028,"##ental":7029,"##zimmer":7030,"Ident":7031,"##reift":7032,"Ill":7033,"1936":7034,"Bier":7035,"Koch":7036,"Syr":7037,"Glo":7038,"##okoll":7039,"Por":7040,"Orgel":7041,"produziert":7042,"Cla":7043,"##ominiert":7044,"##NV":7045,"##messer":7046,"##rainer":7047,"Meinung":7048,"Lieder":7049,"River":7050,"##station":7051,"Allein":7052,"Brücke":7053,"##öch":7054,"Bab":7055,"1918":7056,"World":7057,"##anzer":7058,"Sech":7059,"Varian":7060,"nahmen":7061,"südlichen":7062,"religi":7063,"Vaters":7064,"##ura":7065,"los":7066,"Schla":7067,"Lim":7068,"traf":7069,"überp":7070,"anhand":7071,"versuchte":7072,"Neubau":7073,"##arn":7074,"##Juli":7075,"Sozi":7076,"Spann":7077,"120":7078,"Charles":7079,"stren":7080,"Bewegung":7081,"##achbar":7082,"gebildet":7083,"Freiheit":7084,"High":7085,"##endorf":7086,"##teilte":7087,"Australien":7088,"wirkt":7089,"##würfe":7090,"##technik":7091,"##Stadt":7092,"Beob":7093,"##uste":7094,"##ieger":7095,"##äußer":7096,"Mauer":7097,"##Fl":7098,"##manns":7099,"tö":7100,"##heater":7101,"##/10":7102,"##rüne":7103,"höhere":7104,"Menge":7105,"ohnehin":7106,"behandelt":7107,"##ds":7108,"Sl":7109,"DM":7110,"Unterricht":7111,"Sat":7112,"Front":7113,"##bür":7114,"denk":7115,"verlangt":7116,"##wes":7117,"Klassen":7118,"Griechenland":7119,"Freiburg":7120,"Bewertung":7121,"Debüt":7122,"##üch":7123,"Premier":7124,"1934":7125,"Ziffer":7126,"##Art":7127,"mittels":7128,"Voraussetzung":7129,"##44":7130,"Single":7131,"##oret":7132,"##.2007":7133,"##einheit":7134,"Zimmer":7135,"##ätestens":7136,"Gläub":7137,"längst":7138,"Bir":7139,"unten":7140,"##Hol":7141,"Regie":7142,"##wies":7143,"##ürzt":7144,"##fir":7145,"Wander":7146,"ermittelt":7147,"Sonntags":7148,"Dor":7149,"##gebiete":7150,"Tschech":7151,"gelegt":7152,"##beschwerde":7153,"beschränkt":7154,"Wetter":7155,"starken":7156,"landwirtschaft":7157,"1)":7158,"(3":7159,"Val":7160,"Anleger":7161,"zuerst":7162,"##National":7163,"Hü":7164,"##setzte":7165,"Äußer":7166,"##Sa":7167,"##iode":7168,"##muse":7169,"beendet":7170,"Beziehungen":7171,"##77":7172,"Büro":7173,"##weichen":7174,"Dör":7175,"braucht":7176,"##ländische":7177,"Serv":7178,"Fonds":7179,"leisten":7180,"tot":7181,"##rennen":7182,"zurückgewiesen":7183,"Jagd":7184,"verurs":7185,"Drittel":7186,"Bewohner":7187,"##enzen":7188,"ad":7189,"##imen":7190,"##udes":7191,"erhöht":7192,"##atoren":7193,"##58":7194,"Aufbau":7195,"Eindruck":7196,"Dennoch":7197,"##63":7198,"##abilit":7199,"Prinzip":7200,"Amtsgericht":7201,"infolge":7202,"##:1":7203,"prüfen":7204,"Gebrauch":7205,"konzentr":7206,"startete":7207,"Feu":7208,"stehenden":7209,"1919":7210,"Hert":7211,"Bä":7212,"##anteil":7213,"##stoßen":7214,"Mär":7215,"##JW":7216,"sex":7217,"nebst":7218,"Berechnung":7219,"gehe":7220,"Heer":7221,"Krimin":7222,"Verhandlungen":7223,"freien":7224,"##gemeinden":7225,"##-)":7226,"##Aug":7227,"Fass":7228,"##fällt":7229,"Rücken":7230,"zunehmend":7231,"##trä":7232,"Wappen":7233,"##grenzen":7234,"getötet":7235,"bezieht":7236,"##ötzlich":7237,"Ordnung":7238,"Grand":7239,"##ory":7240,"Klinik":7241,"Stunde":7242,"Gefängnis":7243,"##ony":7244,"erbaut":7245,"Handel":7246,"##ränkung":7247,"Wett":7248,"höchste":7249,"##urt":7250,"Cont":7251,"Soll":7252,"ändern":7253,"Ungarn":7254,"##Oktober":7255,"##amin":7256,"Gün":7257,"künstler":7258,"Anerkennung":7259,"Rheinland":7260,"##liegt":7261,"##Gesch":7262,"Auskunft":7263,"Einzelheiten":7264,"Fisch":7265,"##städ":7266,"abgesch":7267,"##ädagog":7268,"christ":7269,"erklären":7270,"##utto":7271,"##real":7272,"übernehmen":7273,"Kabinett":7274,"##wuchs":7275,"##hängig":7276,"hierfür":7277,"##achs":7278,"Kenn":7279,"##rischen":7280,"Christoph":7281,"Fälle":7282,"feier":7283,"##cm":7284,"##FA":7285,"komplett":7286,"notwendigen":7287,"verwiesen":7288,"##amerika":7289,"bezeichnete":7290,"Weiteren":7291,"beurteil":7292,"auszugehen":7293,"##43":7294,"##schloss":7295,"##kla":7296,"1951":7297,"Tel":7298,"Bundesk":7299,"##schaffen":7300,"##losigkeit":7301,"Regional":7302,"eigener":7303,"Zusatz":7304,"##arakter":7305,"##ussen":7306,"##ban":7307,"##ston":7308,"großes":7309,"##lehnung":7310,"##FG":7311,"##42":7312,"gemeinsame":7313,"##91":7314,"nachvoll":7315,"Revolution":7316,"##kore":7317,"1935":7318,"Ven":7319,"Zuständig":7320,"Auswirkungen":7321,"Ausländer":7322,"##WG":7323,"ü":7324,"bewusst":7325,"##hG":7326,"wert":7327,"Möglichkeiten":7328,"##erinnen":7329,"miss":7330,"Division":7331,"##ords":7332,"konkret":7333,"##sur":7334,"Priester":7335,"helfen":7336,"Marc":7337,"Regeln":7338,"eingerichtet":7339,"schließt":7340,"Entwicklungs":7341,"##endeten":7342,"Zehn":7343,"Zunächst":7344,"verboten":7345,"##terie":7346,"##möglichkeiten":7347,"Bat":7348,"##zusehen":7349,"##ungser":7350,"ag":7351,"Ring":7352,"##mäßigkeit":7353,"Blüten":7354,"##grenz":7355,"##räumen":7356,"bildete":7357,"##sende":7358,"Anb":7359,"Beziehung":7360,"lern":7361,"##otent":7362,"##47":7363,"##500":7364,"erweitert":7365,"rep":7366,"##geht":7367,"1937":7368,"##BVer":7369,"befür":7370,"Ärzte":7371,"gesellschaft":7372,"##krieg":7373,"##leihen":7374,"welchem":7375,"indes":7376,"##gründen":7377,"##grö":7378,"Werner":7379,"Konflikt":7380,"Genehmigung":7381,"##62":7382,"##empf":7383,"Ebene":7384,"##uls":7385,"##aw":7386,"verbreitet":7387,"Roll":7388,"Angeklagte":7389,"##ändigen":7390,"Grä":7391,"durfte":7392,"schließen":7393,"##füllung":7394,"Abgeordneten":7395,"Misch":7396,"nutz":7397,"Erkran":7398,"erl":7399,"Rudolf":7400,"Abschie":7401,"verab":7402,"##familie":7403,"glaub":7404,"5,":7405,"Opt":7406,"##zone":7407,"Gebühren":7408,"##assten":7409,"##brücke":7410,"nannte":7411,"Strecken":7412,"Widerstand":7413,"##oy":7414,"beginnen":7415,"angelegt":7416,"Aufstieg":7417,"##person":7418,"unzulässig":7419,"mut":7420,"Integr":7421,"##Chr":7422,"##wechs":7423,"ko":7424,"legt":7425,"##punkten":7426,"Open":7427,"##isieren":7428,"Einrichtungen":7429,"##etern":7430,"Verantwortung":7431,"##hmen":7432,"Architektur":7433,"##ätzt":7434,"##September":7435,"##iana":7436,"##usen":7437,"##85":7438,"##onte":7439,"zwingen":7440,"eindeutig":7441,"ursprünglichen":7442,"##lässlich":7443,"##amtes":7444,"##spann":7445,"##leb":7446,"Disziplin":7447,"##renten":7448,"bekommt":7449,"Mainz":7450,"spät":7451,"fahren":7452,"schwarz":7453,"##aser":7454,"Ehem":7455,"Gesellschafter":7456,"Beck":7457,"Konkurrenz":7458,"entsteht":7459,"##echte":7460,"Tisch":7461,"SS":7462,"##gessen":7463,"sor":7464,"##äger":7465,"Erweiter":7466,"NJW":7467,"Willen":7468,"Stellungnahme":7469,"##wahlen":7470,"Erg":7471,"gener":7472,"Opposition":7473,"sowjet":7474,"Rekord":7475,"Cap":7476,"Grafen":7477,"kurze":7478,"##hoff":7479,"##spflicht":7480,"##schreiben":7481,"Einer":7482,"##hörigkeit":7483,"dra":7484,"gemein":7485,"##emann":7486,"##gegenständ":7487,"Ausbildungs":7488,"##splatz":7489,"rechtfert":7490,"Show":7491,"Dpartement":7492,"dargelegt":7493,"##iftung":7494,"Unterschied":7495,"##hörige":7496,"##iefe":7497,"##wält":7498,"Herstellung":7499,"Weltkriegs":7500,"Gemeinschaft":7501,"Manager":7502,"Sieger":7503,"behauptet":7504,"Moment":7505,"lautet":7506,"##besitz":7507,"##stoffe":7508,"beauf":7509,"Bestimmungen":7510,"Suche":7511,"ged":7512,"Telefon":7513,"Grundstücks":7514,"miteinander":7515,"bewe":7516,"Nordosten":7517,"##BGH":7518,"Linien":7519,"Immobilien":7520,"Nürnberg":7521,"nördlichen":7522,"geist":7523,"Vorlage":7524,"Portug":7525,"##ammer":7526,"ausgestat":7527,"endlich":7528,"[unused_punctuation12]":7529,"abgewiesen":7530,"##klass":7531,"Mur":7532,"Kategorie":7533,"Verdacht":7534,"Vorgaben":7535,"##gehende":7536,"Notwend":7537,"Lig":7538,"##ränk":7539,"--":7540,"##volle":7541,"1900":7542,"##etzter":7543,"##Qu":7544,"Rosen":7545,"betrachtet":7546,"verfolgt":7547,"Eintritt":7548,"Maßnahme":7549,"##con":7550,"Nahr":7551,"##nissen":7552,"1928":7553,"erhielten":7554,"berühm":7555,"weib":7556,"muß":7557,"##atisch":7558,"##etzte":7559,"##fristig":7560,"Kais":7561,"##88":7562,"Mes":7563,"##erb":7564,"Fürsten":7565,"Quer":7566,"Zwe":7567,"Vorstands":7568,"Höchst":7569,"##sberg":7570,"##November":7571,"##iol":7572,"Daniel":7573,"Zentr":7574,"##adel":7575,"aufgelöst":7576,"Wag":7577,"##ängerung":7578,"endgültig":7579,"Jürgen":7580,"##öse":7581,"##ungszeit":7582,"##abteilung":7583,"Aufsichts":7584,"frem":7585,"##leute":7586,"Bist":7587,"##fabrik":7588,"##ografie":7589,"Abt":7590,"##bogen":7591,"Thür":7592,"Besonders":7593,"absol":7594,"##hu":7595,"##beteil":7596,"täglich":7597,"BAG":7598,"Klei":7599,"##verletzung":7600,"Atom":7601,"##werken":7602,"gleicher":7603,"##achim":7604,"AR":7605,"zuständigen":7606,"versehen":7607,"Schleswig":7608,"##ye":7609,"Unterlagen":7610,"beige":7611,"Musiker":7612,"freiwill":7613,"stehe":7614,"##eiche":7615,"##jahren":7616,"Bisch":7617,"rot":7618,"##ordnen":7619,"getragen":7620,"Bundesstaat":7621,"47":7622,"Temperatur":7623,"Streitwert":7624,"##bern":7625,"##zens":7626,"Nov":7627,"American":7628,"Tief":7629,"Klass":7630,"Beiträge":7631,"##gesellschaften":7632,"##66":7633,"eigenes":7634,"einzigen":7635,"Dien":7636,"##aro":7637,"Cup":7638,"Qualifikation":7639,"##iland":7640,"Liefer":7641,"Dadurch":7642,"##Ent":7643,"##ugend":7644,"Fahrt":7645,"##uropa":7646,"Auflage":7647,"##April":7648,"stamm":7649,"Existenz":7650,"Nic":7651,"Ähn":7652,"Spiegel":7653,"extrem":7654,"Siedlung":7655,"##eigent":7656,"Vogel":7657,"##hockey":7658,"##äudes":7659,"integr":7660,"Nie":7661,"ließen":7662,"bedarf":7663,"##ateri":7664,"gesprochen":7665,"##stamm":7666,"hundert":7667,"Anhänger":7668,"zusätzliche":7669,"##orien":7670,"Gru":7671,"##leistet":7672,"##49":7673,"##wan":7674,"##astian":7675,"gelei":7676,"dig":7677,"Anders":7678,"##rikt":7679,"##31":7680,"##gol":7681,"##zahlungen":7682,"##mittlung":7683,"##owski":7684,"Formen":7685,"Landschaft":7686,"##ßig":7687,"Gang":7688,"starke":7689,"##wal":7690,"##auert":7691,"##inne":7692,"##olz":7693,"##lässigkeit":7694,"Fürst":7695,"Kiel":7696,"maßgeblichen":7697,"Haut":7698,"BM":7699,"betroffenen":7700,"gegebenen":7701,"Marke":7702,"41":7703,"welchen":7704,"Neue":7705,"##alisiert":7706,"##Spiel":7707,"##ora":7708,"mark":7709,"vgl":7710,"##SS":7711,"Gedanken":7712,"BA":7713,"Untersuchungen":7714,"##änderte":7715,"BFHE":7716,"##istent":7717,"Brüssel":7718,"orden":7719,"##bahnhof":7720,"##erische":7721,"##machung":7722,"Schwerpunkt":7723,"nachgewiesen":7724,"##sdorf":7725,"bestehende":7726,"Anhör":7727,"##istr":7728,"Forderung":7729,"Gymnasium":7730,"##assel":7731,"Sprin":7732,"##röm":7733,"hören":7734,"##bereitung":7735,"##häre":7736,"gelegenen":7737,"Ausbau":7738,"##äuden":7739,"Zurück":7740,"Afr":7741,"erfasst":7742,"sicht":7743,"anerkannt":7744,"Original":7745,"laufen":7746,"##79":7747,"Versch":7748,"Put":7749,"##ulgar":7750,"maßgeblich":7751,"##Prozent":7752,"Ermittlungen":7753,"vergeben":7754,"Drogen":7755,"zugunsten":7756,"ermöglicht":7757,"##orter":7758,"1914":7759,"Dinge":7760,"##pat":7761,"Produkte":7762,"heil":7763,"Reihen":7764,"Städten":7765,"##Her":7766,"##struktion":7767,"##FB":7768,"kurzen":7769,"rechnen":7770,"Schauspielerin":7771,"Korrespondent":7772,"##indungs":7773,"Oder":7774,"Gött":7775,"aufgestellt":7776,"Territor":7777,"##holen":7778,"Vergütung":7779,"mögliche":7780,"ermöglichen":7781,"Kapaz":7782,"Mig":7783,"liegenden":7784,"250":7785,"##prof":7786,"genehm":7787,"Darm":7788,"etabl":7789,"Eber":7790,"##echten":7791,"musikal":7792,"Eingang":7793,"##aktor":7794,"##ziehungsweise":7795,"Anp":7796,"Ingen":7797,"Karlsruhe":7798,"Fritz":7799,"##fonds":7800,"##etto":7801,"##69":7802,"##hod":7803,"Kil":7804,"Tätigkeiten":7805,"Ebenso":7806,"Gäste":7807,"treten":7808,"##akult":7809,"Südwesten":7810,"##edig":7811,"Gesundheit":7812,"##weiht":7813,"Fal":7814,"abgeb":7815,"Enga":7816,"##/12":7817,"##gä":7818,"Gleichzeitig":7819,"##atischen":7820,"##Straße":7821,"seitdem":7822,"Heidel":7823,"##regelung":7824,"##Gen":7825,"##August":7826,"Mac":7827,"Landgerichts":7828,"Teams":7829,"##mäßige":7830,"räum":7831,"##Euro":7832,"##Im":7833,"##orps":7834,"##klär":7835,"§10":7836,"Ziff":7837,"##furt":7838,"##falt":7839,"##Besch":7840,"##kn":7841,"überw":7842,"##its":7843,"einiger":7844,"##wn":7845,"1932":7846,"49":7847,"##/201":7848,"bedro":7849,"Angeles":7850,"erlaubt":7851,"verändert":7852,"##steten":7853,"allgemeine":7854,"##.:":7855,"##örp":7856,"Autos":7857,"Island":7858,"##SPD":7859,"##fält":7860,"Mol":7861,"##essel":7862,"52":7863,"##ommern":7864,"Gefangen":7865,"##):":7866,"Minute":7867,"##bas":7868,"##dach":7869,"Neuen":7870,"Kos":7871,"##ira":7872,"Mod":7873,"Ziele":7874,"##irol":7875,"Entste":7876,"##.2006":7877,"##nant":7878,"lö":7879,"diskut":7880,"Anhaltspunkte":7881,"##ction":7882,"Ly":7883,"Dortmund":7884,"kennt":7885,"unterscheiden":7886,"einerseits":7887,"Exempl":7888,"Feder":7889,"Vorliegen":7890,"##kreuz":7891,"Bart":7892,"##stitute":7893,"##histor":7894,"##ual":7895,"männ":7896,"##ündet":7897,"United":7898,"##ziel":7899,"##unnel":7900,"Status":7901,"ferner":7902,"rad":7903,"sämtliche":7904,"beziehungsweise":7905,"anschließen":7906,"1929":7907,"Rechtss":7908,"##lichem":7909,"Grunde":7910,"##37":7911,"region":7912,"Kö":7913,"##altete":7914,"South":7915,"Vertrauen":7916,"Lau":7917,"Papier":7918,"Wit":7919,"Schle":7920,"system":7921,"##uff":7922,"hand":7923,"##kultur":7924,"Station":7925,"Wohnungs":7926,"Europameister":7927,"Erzähl":7928,"##otion":7929,"demnach":7930,"hoher":7931,"##vertreter":7932,"andererseits":7933,"Information":7934,"##dex":7935,"##witz":7936,"##handels":7937,"hinein":7938,"##ektar":7939,"schwere":7940,"Lad":7941,"Gitar":7942,"##schi":7943,"Reaktion":7944,"##ink":7945,"##stücke":7946,"Zwangs":7947,"Traum":7948,"##äumt":7949,"Entfern":7950,"angeblich":7951,"Nav":7952,"kontroll":7953,"Ze":7954,"Hub":7955,"##ungsanspruch":7956,"##bauer":7957,"##Preis":7958,"1,5":7959,"Jakob":7960,"hingewiesen":7961,"##Geb":7962,"Elis":7963,"Fäh":7964,"Freunde":7965,"##unken":7966,"##beruf":7967,"##8.":7968,"konkrete":7969,"##stechn":7970,"Anwesen":7971,"Eröffnung":7972,"entschied":7973,"##anda":7974,"##phase":7975,"Figuren":7976,"herum":7977,"ordnungs":7978,"##werben":7979,"##name":7980,"LSG":7981,"##kriegs":7982,"Brüder":7983,"gewalt":7984,"Bell":7985,"Demonst":7986,"##andele":7987,"Errichtung":7988,"Kro":7989,"Nordwesten":7990,"##schend":7991,"Dän":7992,"Antwort":7993,"Av":7994,"Ausgabe":7995,"Internationalen":7996,"Erfahrungen":7997,"##ünde":7998,"##ändige":7999,"Südosten":8000,"##61":8001,"##baus":8002,"Gerhard":8003,"Software":8004,"schützen":8005,"ungefähr":8006,"Gest":8007,"auseinander":8008,"Hohen":8009,"Bedarf":8010,"Refer":8011,"Schmer":8012,"##bay":8013,"##üll":8014,"Diplom":8015,"Lebensmittel":8016,"dortigen":8017,"##oo":8018,"Play":8019,"Bevölkerungs":8020,"vertra":8021,"geplanten":8022,"Alkohol":8023,"Cha":8024,"##front":8025,"jemand":8026,"Automobil":8027,"Ukraine":8028,"vorliegen":8029,"110":8030,"##verbände":8031,"Begl":8032,"Tatsache":8033,"##bran":8034,"Mittelalter":8035,"##hes":8036,"liege":8037,"genannte":8038,"bi":8039,"Treu":8040,"##artet":8041,"##erer":8042,"Gust":8043,"festzustellen":8044,"##schicht":8045,"Abstand":8046,"Francis":8047,"Flugzeug":8048,"verbesser":8049,"teils":8050,"##verwaltungs":8051,"##urer":8052,"Autobahn":8053,"##ani":8054,"morgen":8055,"##jor":8056,"benachbar":8057,"besitzen":8058,"Süddeutschen":8059,"wirken":8060,"langsam":8061,"oberen":8062,"Planung":8063,"Erschein":8064,"technischen":8065,"elektron":8066,"Arz":8067,"Stär":8068,"Dir":8069,"sport":8070,"bezüglich":8071,"komme":8072,"##iqu":8073,"geborene":8074,"modernen":8075,"##ausgleich":8076,"Notwendigkeit":8077,"##ues":8078,"##gegangen":8079,"##Fra":8080,"##lohn":8081,"betrifft":8082,"suchen":8083,"##umente":8084,"private":8085,"##arische":8086,"Wochenende":8087,"Auftritt":8088,"Saar":8089,"Bord":8090,"Orte":8091,"Pau":8092,"##bedür":8093,"##euten":8094,"##ales":8095,"##örter":8096,"Niederlage":8097,"Weihnacht":8098,"##eider":8099,"dokument":8100,"Hir":8101,"##apanischen":8102,"Auflösung":8103,"Kölner":8104,"entlassen":8105,"##größ":8106,"inhalt":8107,"##jew":8108,"##Part":8109,"Hinsicht":8110,"##CDU":8111,"umben":8112,"Kapelle":8113,"Tö":8114,"##ces":8115,"##unschwei":8116,"##stuhl":8117,"Söhne":8118,"##istischer":8119,"600":8120,"Verd":8121,"##strecken":8122,"zugeordnet":8123,"eingeb":8124,"##Ich":8125,"Afghan":8126,"Preise":8127,"Flur":8128,"KG":8129,"Krise":8130,"[unused_punctuation7]":8131,"Seb":8132,"bestimmen":8133,"geschütz":8134,"##modell":8135,"Treffen":8136,"Experten":8137,"Kandidaten":8138,"##vater":8139,"Französ":8140,"##emm":8141,"station":8142,"Zerst":8143,"Krankheit":8144,"##ey":8145,"handele":8146,"Ehemann":8147,"##enkt":8148,"##älde":8149,"##isierten":8150,"Erhebung":8151,"##täu":8152,"Kombin":8153,"##lige":8154,"##bringung":8155,"nachfol":8156,"##sinn":8157,"##rente":8158,"Elektro":8159,"wichtigen":8160,"##skosten":8161,"erstreckt":8162,"wichtiger":8163,"Tode":8164,"Sonntagszeitung":8165,"Polizisten":8166,"still":8167,"Rechtsmittel":8168,"Sel":8169,"Stich":8170,"entnehmen":8171,"##BC":8172,"##folg":8173,"unserer":8174,"verschw":8175,"Niedersachsen":8176,"##üren":8177,"Verfassung":8178,"(199":8179,"Einschätzung":8180,"##lenburg":8181,"##wege":8182,"##geworfen":8183,"##fällig":8184,"del":8185,"##/13":8186,"##uc":8187,"##vort":8188,"##worfen":8189,"Festival":8190,"##mitglieder":8191,"getrennt":8192,"politisch":8193,"Kolon":8194,"##sersatz":8195,"Sw":8196,"##Pfalz":8197,"##sender":8198,"##walter":8199,"SV":8200,"##teg":8201,"##öffnet":8202,"arbeits":8203,"Revisions":8204,"Umsetzung":8205,"##nehmern":8206,"eins":8207,"##graben":8208,"Pläne":8209,"##präsidenten":8210,"Glei":8211,"Mühl":8212,"Vermögens":8213,"wirksam":8214,"Filme":8215,"gegründeten":8216,"##eidung":8217,"Dub":8218,"beschreibt":8219,"1925":8220,"##fre":8221,"Bestandteil":8222,"##.5":8223,"##spartner":8224,"##ilien":8225,"fehler":8226,"Sn":8227,"Bri":8228,"Rücktritt":8229,"##Nach":8230,"##ket":8231,"(201":8232,"##emark":8233,"verste":8234,"bestehe":8235,"beantrag":8236,"Szene":8237,"ausgew":8238,"##mär":8239,"Fle":8240,"verlegt":8241,"##ER":8242,"Adolf":8243,"Last":8244,"handelte":8245,"##riss":8246,"Toten":8247,"grundsätz":8248,"##ique":8249,"Len":8250,"SGG":8251,"körper":8252,"Etwa":8253,"gleichnamigen":8254,"Tonnen":8255,"Ram":8256,"Hauses":8257,"Verhältnisse":8258,"Schnitt":8259,"##SchG":8260,"##heute":8261,"plötzlich":8262,"##ring":8263,"1924":8264,"##onym":8265,"zweiter":8266,"hängt":8267,"sitzt":8268,"(5":8269,"##entgelt":8270,"Objekt":8271,"##oria":8272,"##paar":8273,"fuhr":8274,"##skrä":8275,"##Dollar":8276,"erhebliche":8277,"1910":8278,"##ständlich":8279,"Wohnungen":8280,"SC":8281,"##alls":8282,"##beginn":8283,"Beschäftigung":8284,"##das":8285,"Sur":8286,"besetzt":8287,"Schwierigkeiten":8288,"kanad":8289,"profit":8290,"müsste":8291,"##issar":8292,"Lind":8293,"##medaille":8294,"Mun":8295,"Zahn":8296,"städt":8297,"##bilder":8298,"##örungen":8299,"Acht":8300,"Ferner":8301,"Kriterien":8302,"Kooper":8303,"##räsid":8304,"Kons":8305,"##oppelt":8306,"Himmel":8307,"##elevan":8308,"##öss":8309,"jener":8310,"Sender":8311,"##ging":8312,"Rem":8313,"höchst":8314,"##ußball":8315,"##Gruppe":8316,"unterschiedlich":8317,"Stimme":8318,"Vorsitzende":8319,"Kanada":8320,"Ufer":8321,"katholischen":8322,"Marine":8323,"2011,":8324,"Bebauungsplan":8325,"##iale":8326,"##sex":8327,"Aussagen":8328,"jahr":8329,"##indet":8330,"##ährungs":8331,"Roh":8332,"komm":8333,"Entwurf":8334,"##ays":8335,"Beitrags":8336,"##odor":8337,"Schuldner":8338,"##verhältnisses":8339,"Schiffe":8340,"schwerer":8341,"Kart":8342,"verstorben":8343,"160":8344,"dän":8345,"Hill":8346,"2010,":8347,"##orts":8348,"Hinzu":8349,"samm":8350,"Scien":8351,"##einigung":8352,"##amerikanische":8353,"Zoll":8354,"jüdischen":8355,"Europas":8356,"Warum":8357,"benutzt":8358,"Mas":8359,"##stä":8360,"##kauft":8361,"Pier":8362,"##ütte":8363,"Lehre":8364,"älteren":8365,"Jungen":8366,"##sky":8367,"##hat":8368,"Verständnis":8369,"##aner":8370,"Ortschaft":8371,"Sowjetunion":8372,"##wägung":8373,"Stadion":8374,"##41":8375,"##rische":8376,"Alfred":8377,"Kommunal":8378,"beabsicht":8379,"Katastrop":8380,"##nan":8381,"##scheinlichkeit":8382,"Vorgehen":8383,"##läufer":8384,"richtet":8385,"##chef":8386,"eingetragen":8387,"Werte":8388,"Vielzahl":8389,"Keller":8390,"##schaff":8391,"##verbandes":8392,"58":8393,"##ranten":8394,"Konzer":8395,"späten":8396,"##sprecher":8397,"##ips":8398,"gefallen":8399,"nachträ":8400,"##reck":8401,"##sprachigen":8402,"Wissenschaftler":8403,"Hinweise":8404,"Zer":8405,"persönlich":8406,"Irak":8407,"Eu":8408,"##rücken":8409,"##blätter":8410,"Inland":8411,"Befrei":8412,"wiederholt":8413,"nachvollzieh":8414,"vorn":8415,"darstellt":8416,"Figur":8417,"Leon":8418,"beauftragt":8419,"##.2005":8420,"reichen":8421,"automat":8422,"##KG":8423,"##attet":8424,"170":8425,"##kehren":8426,"Sekunden":8427,"##museum":8428,"##echnen":8429,"leist":8430,"Forscher":8431,"Vorteil":8432,"##opt":8433,"Vorbild":8434,"##konzern":8435,"##körper":8436,"##gnose":8437,"1927":8438,"Eck":8439,"Jos":8440,"Studio":8441,"##ebook":8442,"Marken":8443,"##ußert":8444,"gemachten":8445,"Can":8446,"Schulden":8447,"akzept":8448,"Drehbuch":8449,"Europäische":8450,"historische":8451,"ums":8452,"positiv":8453,"Generation":8454,"Protest":8455,"Sab":8456,"##gehenden":8457,"Indien":8458,"##hig":8459,"russische":8460,"entwickeln":8461,"Zentimeter":8462,"Bahnstrecke":8463,"##uens":8464,"Organe":8465,"##viertel":8466,"spanischen":8467,"##dlich":8468,"Milch":8469,"##zene":8470,"ta":8471,"##dinand":8472,"##ischt":8473,"Bayerischen":8474,"6,":8475,"##inar":8476,"##ländern":8477,"Bedenken":8478,"##gebir":8479,"##erklärung":8480,"##holung":8481,"legen":8482,"Lot":8483,"##felder":8484,"san":8485,"[unused_punctuation16]":8486,"Master":8487,"Schrö":8488,"##aktiv":8489,"##afrika":8490,"Ban":8491,"##ulierung":8492,"Forst":8493,"Zeuge":8494,"##schwer":8495,"erfüllen":8496,"##odurch":8497,"##gerechnet":8498,"##erken":8499,"CD":8500,"unterhalb":8501,"Ausschluss":8502,"Iran":8503,"##iedelt":8504,"endet":8505,"Golf":8506,"North":8507,"##reicher":8508,"bundes":8509,"ungewöhn":8510,"##jähriger":8511,"##ags":8512,"##kat":8513,"gewährt":8514,"AufenthG":8515,"blau":8516,"##amts":8517,"besie":8518,"##System":8519,"Deck":8520,"Rettungs":8521,"erlassen":8522,"##spartei":8523,"keinem":8524,"##wirkt":8525,"2014,":8526,"Mitgliedern":8527,"Platten":8528,"##Jahren":8529,"vertrag":8530,"##sens":8531,"sitzen":8532,"Restaurant":8533,"festgelegt":8534,"##gerichtlichen":8535,"jung":8536,"abgegeben":8537,"Eishockey":8538,"staatlicher":8539,"##derungs":8540,"Alltag":8541,"##bef":8542,"Insoweit":8543,"##ouverneur":8544,"Widerruf":8545,"##ogle":8546,"Braunschwei":8547,"Mön":8548,"griechischen":8549,"Films":8550,"##flügel":8551,"Weltkrieges":8552,"##ela":8553,"##konom":8554,"wodurch":8555,"Überprüfung":8556,"##bilden":8557,"Mitbe":8558,"fordert":8559,"kündigte":8560,"##iertes":8561,"erteilt":8562,"rechtlich":8563,"festgesetzt":8564,"Laufbahn":8565,"Mount":8566,"##ligisten":8567,"unterrich":8568,"besaß":8569,"rest":8570,"##/11":8571,"##urn":8572,"##sonsten":8573,"Informations":8574,"##iw":8575,"Schadensersatz":8576,"nennen":8577,"Besitzer":8578,"##vorschriften":8579,"Arbeitszeit":8580,"64":8581,"##gerichtshof":8582,"Comm":8583,"##alerie":8584,"##artige":8585,"##eldet":8586,"invest":8587,"umge":8588,"Künst":8589,"##-2":8590,"erfordert":8591,"##inzip":8592,"##vertrages":8593,"entsp":8594,"Einnahmen":8595,"##out":8596,"Erste":8597,"Joachim":8598,"Tanz":8599,"Cas":8600,"hierbei":8601,"Worten":8602,"Nachfrage":8603,"##lav":8604,"##riz":8605,"##alender":8606,"erstinstanz":8607,"vorübergehend":8608,"##Mill":8609,"begründen":8610,"##genehmigung":8611,"genügt":8612,"##strum":8613,"Strategie":8614,"##hende":8615,"##bad":8616,"Gestaltung":8617,"verschiedener":8618,"Mund":8619,"Facebook":8620,"jene":8621,"nationale":8622,"##ards":8623,"Schied":8624,"##partei":8625,"spätere":8626,"##figur":8627,"##fragt":8628,"Fakult":8629,"Sturm":8630,"bestritt":8631,"##bewegung":8632,"ausgewiesen":8633,"##gau":8634,"##usste":8635,"Ohne":8636,"laufenden":8637,"##mag":8638,"Franken":8639,"damalige":8640,"##brü":8641,"##heorie":8642,"##Deutsch":8643,"##schuldner":8644,"Werbe":8645,"publ":8646,"##ofs":8647,"##annen":8648,"Kub":8649,"gearbeitet":8650,"AO":8651,"##lieger":8652,"schm":8653,"Aufwendungen":8654,"69":8655,"Ten":8656,"abhängig":8657,"##daten":8658,"Wiederauf":8659,"natur":8660,"einstwei":8661,"kleinere":8662,"Aud":8663,"##rede":8664,"vorhandenen":8665,"Große":8666,"Geh":8667,"##bevollmächt":8668,"Back":8669,"##app":8670,"##ota":8671,"älteste":8672,"ausgestattet":8673,"Umgang":8674,"##ove":8675,"Eint":8676,"##chern":8677,"##gerung":8678,"Angelegen":8679,"##endigung":8680,"Verwaltungsakt":8681,"##Main":8682,"schaff":8683,"Daraufhin":8684,"übert":8685,"Luc":8686,"##welle":8687,"##linder":8688,"Vf":8689,"soziale":8690,"##mlich":8691,"Wachstum":8692,"Verteidigungs":8693,"Regionen":8694,"Pu":8695,"##lange":8696,"Stoff":8697,"Gewährung":8698,"IS":8699,"befind":8700,"##herren":8701,"Sprachen":8702,"Est":8703,"geraten":8704,"##stunden":8705,"##3-":8706,"Besetzung":8707,"ausgesetzt":8708,"Überw":8709,"Gründer":8710,"offenen":8711,"##irch":8712,"finanziellen":8713,"##lim":8714,"Ferdinand":8715,"##fa":8716,"\",":8717,"##ilian":8718,"Direkt":8719,"##atin":8720,"Kard":8721,"Verwand":8722,"Entgegen":8723,"##teuer":8724,"national":8725,"Anz":8726,"Block":8727,"Flügel":8728,"unteren":8729,"versp":8730,"Dritten":8731,"##arriere":8732,"##una":8733,"Gerichtshof":8734,"##kehrungen":8735,"Bewerber":8736,"Zins":8737,"##bell":8738,"umgeben":8739,"oper":8740,"Geburtstag":8741,"##alifornien":8742,"Brasilien":8743,"##österreich":8744,"aufgeführt":8745,"Gefahren":8746,"##rocken":8747,"##zwungen":8748,"1921":8749,"arch":8750,"2012,":8751,"Bronze":8752,"Athen":8753,"liter":8754,"aufgebaut":8755,"##rates":8756,"Ulrich":8757,"##Februar":8758,"Chemie":8759,"##kathol":8760,"leitet":8761,"##Vers":8762,"Box":8763,"1923":8764,"##ssystem":8765,"Mexiko":8766,"zumal":8767,"Straft":8768,"keines":8769,"Diet":8770,"##bereiten":8771,"Hoffnung":8772,"##zweck":8773,"##zell":8774,"##hardt":8775,"Urs":8776,"##Politik":8777,"Wende":8778,"sucht":8779,"Elisabeth":8780,"Vill":8781,"deswegen":8782,"Royal":8783,"##deutsche":8784,"##produktion":8785,"nominiert":8786,"Behinder":8787,"##pre":8788,"##IS":8789,"##aud":8790,"##icker":8791,"Pens":8792,"Verlängerung":8793,"54":8794,"##ungsklage":8795,"rechtfertigen":8796,"Bol":8797,"##atische":8798,"urkund":8799,"Syrien":8800,"Chancen":8801,"##findung":8802,"##straßen":8803,"Aussicht":8804,"##aux":8805,"sog":8806,"gegangen":8807,"fließt":8808,"küm":8809,"##stil":8810,"##lebt":8811,"##gehren":8812,"Monats":8813,"Gründungs":8814,"##ior":8815,"##gigen":8816,"Dok":8817,"##sphäre":8818,"##häusern":8819,"Haushalt":8820,"Börsen":8821,"##bungs":8822,"##mauer":8823,"vorgelegt":8824,"Dritt":8825,"Ansatz":8826,"Autorin":8827,"zuzu":8828,"##/09":8829,"Mut":8830,"##händler":8831,"##licherweise":8832,"Leser":8833,"ren":8834,"Kalk":8835,"##ws":8836,"##titel":8837,"##hofer":8838,"unterstützen":8839,"##HL":8840,"##So":8841,"umbenannt":8842,"##ührt":8843,"##direktor":8844,"##lichkeits":8845,"Black":8846,"##86":8847,"Google":8848,"##gler":8849,"Amtszeit":8850,"##Sie":8851,"##stande":8852,"##ächer":8853,"Jeder":8854,"##ria":8855,"##andal":8856,"worauf":8857,"51":8858,"##text":8859,"Mio":8860,"Änderungen":8861,"Turn":8862,"schreiben":8863,"islam":8864,"##ierend":8865,"japanischen":8866,"130":8867,"1931":8868,"##bedarf":8869,"Forderungen":8870,"Ortes":8871,"##okraten":8872,"bedeutend":8873,"##star":8874,"Ergänz":8875,"verstanden":8876,"Kurt":8877,"Aufenthalts":8878,"Sachverhalt":8879,"Kino":8880,"Andere":8881,"##problem":8882,"Diskussion":8883,"1922":8884,"erlä":8885,"##region":8886,"Handlung":8887,"falsch":8888,"Einkommensteuer":8889,"##igter":8890,"stattfinden":8891,"Beschäftigten":8892,"##essischen":8893,"machten":8894,"Sus":8895,"Meck":8896,"Züge":8897,"angekündigt":8898,"##iefen":8899,"Serien":8900,"Nachweis":8901,"Theologie":8902,"Äg":8903,"800":8904,"mar":8905,"sofern":8906,"Passag":8907,"Pfarrer":8908,"Adr":8909,"erfolgten":8910,"##not":8911,"Music":8912,"Alpen":8913,"##kas":8914,"Geschlecht":8915,"##frastruktur":8916,"Erfahrung":8917,"##pekt":8918,"##deckung":8919,"##rages":8920,"erforderliche":8921,"Veränderungen":8922,"Dig":8923,"Ther":8924,"Landesarbeits":8925,"Aussch":8926,"Tu":8927,"begrenzt":8928,"Feuill":8929,"Verfolgung":8930,"##eiern":8931,"schlug":8932,"##ämpfer":8933,"Rente":8934,"##eihe":8935,"spätestens":8936,"östlichen":8937,"56":8938,"Arznei":8939,"Lebensmitteln":8940,"##ado":8941,"gern":8942,"##oden":8943,"Großteil":8944,"##behandlung":8945,"##kunst":8946,"polnischen":8947,"##ministeriums":8948,"##.2016":8949,"ausgesprochen":8950,"Erfolge":8951,"##weiten":8952,"2013,":8953,"##kop":8954,"##gramme":8955,"##schlags":8956,"04":8957,"Bühnen":8958,"##rüst":8959,"Merc":8960,"freie":8961,"Gustav":8962,"Rathaus":8963,"Wahlen":8964,"##zellen":8965,"Wahlkampf":8966,"Kamera":8967,"##medizin":8968,"spielten":8969,"##ekul":8970,"Landschafts":8971,"bot":8972,"##gebote":8973,"aktuelle":8974,"Initiative":8975,"1912":8976,"diesmal":8977,"##auso":8978,"##säss":8979,"Gelegenheit":8980,"##stie":8981,"Allgemeine":8982,"##echan":8983,"1926":8984,"verkaufte":8985,"Erforder":8986,"Abwehr":8987,"Sendung":8988,"erzielt":8989,"Henry":8990,"2009,":8991,"Verbesser":8992,"Farb":8993,"Mission":8994,"gült":8995,"##einhalb":8996,"##phan":8997,"##hofen":8998,"##rib":8999,"##gemä":9000,"Streitfall":9001,"vertrat":9002,"versuchen":9003,"##sab":9004,"Steuern":9005,"Rollen":9006,"Letzter":9007,"gehandelt":9008,"Verbot":9009,"Priv":9010,"Fotos":9011,"##gab":9012,"durchge":9013,"##glos":9014,"fung":9015,"Gau":9016,"##skon":9017,"##swert":9018,"klassischen":9019,"##gewalt":9020,"handeln":9021,"##por":9022,"(4":9023,"anal":9024,"Erwart":9025,"Wes":9026,"##gig":9027,"##gebieten":9028,"##yle":9029,"Tab":9030,"vieler":9031,"Kathol":9032,"monatlich":9033,"lagen":9034,"Dänemark":9035,"##52":9036,"##räsentanten":9037,"BauGB":9038,"Magde":9039,"##ördern":9040,"##spir":9041,"wechseln":9042,"##ku":9043,"Inseln":9044,"Museums":9045,"Pfar":9046,"Sonne":9047,"Botschaft":9048,"Erteilung":9049,"vermeiden":9050,"##bchen":9051,"Charl":9052,"Anspruchs":9053,"##ella":9054,"fach":9055,"dienst":9056,"Gebiete":9057,"Oberst":9058,"OLG":9059,"Klavier":9060,"Afrika":9061,"Roten":9062,"VW":9063,"glück":9064,"AS":9065,"##geblich":9066,"Inhaber":9067,"##deln":9068,"##zenten":9069,"##gebe":9070,"Nachwuchs":9071,"Meeres":9072,"##pap":9073,"##projekt":9074,"angefochtene":9075,"##ichtung":9076,"auftreten":9077,"Ken":9078,"Karten":9079,"Chic":9080,"Kündigungs":9081,"Diesen":9082,"##Ober":9083,"lehnte":9084,"Allgemein":9085,"beit":9086,"lo":9087,"Gefähr":9088,"überzeugt":9089,"##schuld":9090,"Führer":9091,"##seitig":9092,"Maxim":9093,"Bett":9094,"Aufwand":9095,"##ödie":9096,"##aktoren":9097,"##ird":9098,"Sicherung":9099,"##.2004":9100,"##ahrt":9101,"Völker":9102,"sorgen":9103,"Jahrzehnten":9104,"Betroffen":9105,"##örtert":9106,"unzur":9107,"##auft":9108,"Gerade":9109,"Million":9110,"##äler":9111,"gleiche":9112,"bill":9113,"Villa":9114,"Hug":9115,"Spielt":9116,"##PS":9117,"##ras":9118,"Trink":9119,"##kow":9120,"Einzelnen":9121,"##uel":9122,"##kopf":9123,"##gründer":9124,"##ridge":9125,"##horn":9126,"##gehalt":9127,"betreibt":9128,"Rechn":9129,"vorbe":9130,"##üte":9131,"##nüpf":9132,"Vict":9133,"##Jahre":9134,"Reda":9135,"gelungen":9136,"abzuweisen":9137,"verkün":9138,"##87":9139,"##rond":9140,"beschä":9141,"##underte":9142,"zivile":9143,"##bund":9144,"##stimmt":9145,"ille":9146,"##53":9147,"##fangs":9148,"Bernhard":9149,"Beigeladene":9150,"##räte":9151,"Schäden":9152,"Schnell":9153,"Arbeitsgericht":9154,"##IV":9155,"Ori":9156,"##enten":9157,"##iation":9158,"##Holstein":9159,"##bahnen":9160,"betreffenden":9161,"errichtete":9162,"Prote":9163,"Festsetzung":9164,"##ämpfe":9165,"##Süd":9166,"DFB":9167,"ZDF":9168,"kritisiert":9169,"##witter":9170,"##institut":9171,"Vereinigung":9172,"Domin":9173,"mithin":9174,"##ierer":9175,"##nieder":9176,"##bem":9177,"##Mann":9178,"##übt":9179,"Chin":9180,"##estern":9181,"##unterricht":9182,"beider":9183,"europäische":9184,"pop":9185,"Nationen":9186,"##ii":9187,"Cro":9188,"verstärkt":9189,"##ther":9190,"dürften":9191,"Beendigung":9192,"##born":9193,"##nes":9194,"Ebenfalls":9195,"Streitkräfte":9196,"##meer":9197,"Zuvor":9198,"Tabellen":9199,"##gestellten":9200,"##attform":9201,"##ikanische":9202,"##cu":9203,"Weißen":9204,"Party":9205,"Veranstaltungen":9206,"Einstellung":9207,"##gebiets":9208,"Unions":9209,"BV":9210,"zitiert":9211,"unterwegs":9212,"##kolle":9213,"Trag":9214,"Ausgaben":9215,"##arf":9216,"Hund":9217,"##legungen":9218,"##ilometern":9219,"Veranstaltung":9220,"Brenn":9221,"Matth":9222,"##/14":9223,"wün":9224,"begeg":9225,"gewöhn":9226,"Wahlkreis":9227,"##ologisch":9228,"Satzung":9229,"##gewinn":9230,"##hauer":9231,"Einkünfte":9232,"##bücher":9233,"Ideen":9234,"eröffnete":9235,"türkischen":9236,"##bacher":9237,"##ränkungen":9238,"##holog":9239,"##strom":9240,"Buchst":9241,"##ais":9242,"Engagement":9243,"53":9244,"Atlant":9245,"Flüchtlings":9246,"beschrän":9247,"##56":9248,"Carol":9249,"Bob":9250,"lebens":9251,"bemü":9252,"Bruch":9253,"Staates":9254,"berechtigt":9255,"##herrn":9256,"##inu":9257,"##waffen":9258,"##pflege":9259,"##ates":9260,"Aufklärung":9261,"Mu":9262,"Fast":9263,"zeitweise":9264,"austral":9265,"Tennis":9266,"Gemeinsam":9267,"Afghanistan":9268,"Adels":9269,"##ül":9270,"DV":9271,"angeschlossen":9272,"##Ger":9273,"Berater":9274,"chinesischen":9275,"##icke":9276,"Liber":9277,"zugänglich":9278,"gegründete":9279,"##rock":9280,"gelegentlich":9281,"##sverfahren":9282,"##dreht":9283,"##nitten":9284,"##decken":9285,"Verurteil":9286,"##ader":9287,"##kw":9288,"##klagte":9289,"Gelt":9290,"##Zeit":9291,"##/08":9292,"##ianer":9293,"##Neu":9294,"##lehre":9295,"7,":9296,"Madrid":9297,"##önen":9298,"##ündnis":9299,"anf":9300,"Erwachsen":9301,"phil":9302,"Beweg":9303,"Mitarbeitern":9304,"Objekte":9305,"veranl":9306,"##riel":9307,"Gebäuden":9308,"Heidelberg":9309,"individuellen":9310,"geplante":9311,"##zählung":9312,"Gall":9313,"##athlet":9314,"person":9315,"steigt":9316,"##eland":9317,"Schicks":9318,"Trennung":9319,"Gegend":9320,"niedriger":9321,"##83":9322,"Überzeugung":9323,"##ausende":9324,"##systems":9325,"Straß":9326,"Bereichen":9327,"##ehrung":9328,"##Mitglie":9329,"BVerfGE":9330,"Kommunikation":9331,"Sieben":9332,"Universitäten":9333,"dank":9334,"Lä":9335,"##het":9336,"##atzen":9337,"Live":9338,"##weislich":9339,"##jahre":9340,"##genöss":9341,"##fass":9342,"##ifiziert":9343,"##wissenschaftler":9344,"Mi":9345,"##ption":9346,"ansäss":9347,"Lande":9348,"##mitte":9349,"##asi":9350,"Mitgliedstaaten":9351,"##steuerung":9352,"Hauptsache":9353,"Ursprün":9354,"Bundeskanzler":9355,"ärzt":9356,"Fabrik":9357,"Angela":9358,"##genossen":9359,"Texte":9360,"train":9361,"Übertragung":9362,"##El":9363,"Edu":9364,"##ungsrecht":9365,"##ails":9366,"min":9367,"##Institut":9368,"gesetzliche":9369,"##Kreis":9370,"weite":9371,"Oberlandes":9372,"Religion":9373,"Design":9374,"Rä":9375,"Rau":9376,"##entsprechend":9377,"wesentlichen":9378,"##gleichen":9379,"unklar":9380,"##ny":9381,"##sparteien":9382,"Pak":9383,"Sebastian":9384,"frühe":9385,"Nikol":9386,"eingetreten":9387,"##edition":9388,"##ianischen":9389,"Urteile":9390,"Vö":9391,"verwei":9392,"erheblichen":9393,"Hat":9394,"##IN":9395,"##spur":9396,"Company":9397,"Differenz":9398,"Theorie":9399,"anzusehen":9400,"französischer":9401,"1913":9402,"mon":9403,"##güter":9404,"zurückzuweisen":9405,"##fels":9406,"persönliche":9407,"##Europ":9408,"##armon":9409,"weisen":9410,"offiziellen":9411,"##iano":9412,"einschlä":9413,"Küsten":9414,"Wähler":9415,"Alli":9416,"Pir":9417,"##chron":9418,"aufzuheben":9419,"##geschä":9420,"voller":9421,"##ppel":9422,"##kandid":9423,"##gendes":9424,"##84":9425,"Prag":9426,"Spät":9427,"reagieren":9428,"unterstütz":9429,"##album":9430,"ziemlich":9431,"##tes":9432,"Konsequ":9433,"##usse":9434,"2008,":9435,"Einheiten":9436,"fü":9437,"Kalifornien":9438,"außerorden":9439,"##ET":9440,"Basket":9441,"Parallel":9442,"Erzbischof":9443,"maximal":9444,"gestorben":9445,"##igner":9446,"##darfs":9447,"Tax":9448,"##jekten":9449,"Aufnahmen":9450,"angeordnet":9451,"2016,":9452,"rechtswidrig":9453,"Hyp":9454,"begannen":9455,"Vorstellung":9456,"##phen":9457,"##hungen":9458,"Jugendliche":9459,"ans":9460,"Hell":9461,"Anges":9462,"Entfernung":9463,"##schten":9464,"Sym":9465,"##nummer":9466,"Bv":9467,"##Berlin":9468,"Rechten":9469,"Sitzung":9470,"##uns":9471,"##kasse":9472,"Konzentr":9473,"Amate":9474,"nötig":9475,"passiert":9476,"cm":9477,"Motiv":9478,"##DS":9479,"lieber":9480,"Halbfinale":9481,"demokrat":9482,"##BFH":9483,"##folgt":9484,"##hören":9485,"Küste":9486,"darstellen":9487,"##ywood":9488,"rechte":9489,"##gesprä":9490,"Records":9491,"Vertrieb":9492,"##organis":9493,"##Mus":9494,"##hersteller":9495,"140":9496,"Zulassungs":9497,"Produktions":9498,"(,":9499,"##schu":9500,"Feuilleton":9501,"##junkt":9502,"Kult":9503,"##ec":9504,"##act":9505,"Kohl":9506,"vorwiegend":9507,"erinnern":9508,"fehlen":9509,"##ows":9510,"japan":9511,"Fakultät":9512,"zentralen":9513,"§7":9514,"versetzt":9515,"wendet":9516,"##behörden":9517,"Führungs":9518,"##VfG":9519,"##var":9520,"Ägyp":9521,"Preußen":9522,"solches":9523,"geregelt":9524,"Dol":9525,"Durchmesser":9526,"##ando":9527,"Angriffe":9528,"gebunden":9529,"##hän":9530,"gestaltet":9531,"##ialen":9532,"untersuch":9533,"##vollen":9534,"abweichen":9535,"römischen":9536,"Fußballspieler":9537,"##förmig":9538,"Mittler":9539,"##küste":9540,"##rill":9541,"Hertha":9542,"Würz":9543,"##ministerin":9544,"##eimar":9545,"baute":9546,"##spricht":9547,"Posten":9548,"Quelle":9549,"Elemente":9550,"Aachen":9551,"Erfolgs":9552,"##otto":9553,"konserv":9554,"##ungsverfahrens":9555,"##schiede":9556,"##Kommission":9557,"Erinnerung":9558,"Management":9559,"y":9560,"ide":9561,"##ly":9562,"Geburts":9563,"bisschen":9564,"straf":9565,"##afel":9566,"Van":9567,"Augsburg":9568,"Summe":9569,"dritt":9570,"##sburger":9571,"organisiert":9572,"lehr":9573,"Orten":9574,"##ütze":9575,"Nachfolge":9576,"##bungen":9577,"Chicago":9578,"aktuell":9579,"unzureich":9580,"verfasste":9581,"##hnten":9582,"2)":9583,"##laube":9584,"Anhörung":9585,"##eise":9586,"Stan":9587,"##quenz":9588,"##digungen":9589,"kost":9590,"##-/":9591,"dan":9592,"Plätze":9593,"Übergang":9594,"Freizeit":9595,"Lokal":9596,"beanstanden":9597,"##artig":9598,"schne":9599,"##ji":9600,"Erne":9601,"Debatte":9602,"##antas":9603,"##hematik":9604,"##miss":9605,"Hockey":9606,"Unrecht":9607,"##stehende":9608,"Markus":9609,"untergebracht":9610,"Spitz":9611,"Marien":9612,"Vorkehrungen":9613,"##irt":9614,"##ürmer":9615,"speziell":9616,"Braunschweig":9617,"##ugnis":9618,"Finanzierung":9619,"##größe":9620,"Klar":9621,"Erfüllung":9622,"Rechtsstreit":9623,"##san":9624,"##glas":9625,"Tok":9626,"Hard":9627,"##belast":9628,"##Zent":9629,"Damen":9630,"italienische":9631,"Obama":9632,"##5)":9633,"Schieds":9634,"##gebühr":9635,"Hektar":9636,"##leun":9637,"Infan":9638,"Pots":9639,"##ky":9640,"Spar":9641,"Training":9642,"##hur":9643,"##glück":9644,"droht":9645,"##fügt":9646,"##mith":9647,"##ämpft":9648,"Behaupt":9649,"Einkauf":9650,"##vorsitzende":9651,"Vin":9652,"##spiegel":9653,"##baute":9654,"##kul":9655,"Pferde":9656,"Matthias":9657,"##motor":9658,"Republ":9659,"erlang":9660,"Haltung":9661,"##adion":9662,"##artigen":9663,"Abweich":9664,"lesen":9665,"##fekt":9666,"Brig":9667,"##ilder":9668,"##Präsident":9669,"Armen":9670,"##konferenz":9671,"Orchester":9672,"##ress":9673,"Andr":9674,"##nchen":9675,"Junioren":9676,"gerechtfertigt":9677,"##82":9678,"repräsent":9679,"SA":9680,"##gerufen":9681,"Mem":9682,"verlangen":9683,"Mecklenburg":9684,"meinen":9685,"angehalten":9686,"Klin":9687,"ausführ":9688,"Hab":9689,"dauern":9690,"##urnier":9691,"57":9692,"Fremd":9693,"##.),":9694,"bauen":9695,"Unterhalt":9696,"Farben":9697,"Wagner":9698,"betont":9699,"Beeinträcht":9700,"##lösung":9701,"##verträge":9702,"##arry":9703,"Aufmer":9704,"mangels":9705,"##no":9706,"Kost":9707,"##risten":9708,"Innenstadt":9709,"unterscheidet":9710,"Individ":9711,"Männern":9712,"##folgen":9713,"Assoc":9714,"Brust":9715,"unstreit":9716,"vereinbart":9717,"Honor":9718,"Muster":9719,"##klei":9720,"##lös":9721,"##gu":9722,"privat":9723,"dringen":9724,"errichten":9725,"untersucht":9726,"verbrachte":9727,"##schieben":9728,"verbundenen":9729,"ost":9730,"Spark":9731,"Kapitän":9732,"Kob":9733,"10.000":9734,"##position":9735,"bestätigte":9736,"05":9737,"vorliegt":9738,"verteilt":9739,"Ausübung":9740,"##schlägen":9741,"Freundin":9742,"verbindet":9743,"Zwecke":9744,"Jed":9745,"Bass":9746,"##wärtigen":9747,"stellten":9748,"Aktivitäten":9749,"bra":9750,"verstarb":9751,"Bilanz":9752,"Simon":9753,"Deutscher":9754,"fährt":9755,"Horst":9756,"Amerikaner":9757,"##ila":9758,"##elbe":9759,"vorläufig":9760,"##änner":9761,"Schwä":9762,"Ablehnung":9763,"##bürgermeister":9764,"Ruhestand":9765,"##oral":9766,"Prakt":9767,"manche":9768,"begründete":9769,"x":9770,"könig":9771,"Oscar":9772,"##hre":9773,"vorgestellt":9774,"Basketball":9775,"##las":9776,"zukün":9777,"existiert":9778,"##ump":9779,"Franzosen":9780,"##ssen":9781,"1911":9782,"su":9783,"##offiz":9784,"##ourt":9785,"##haftet":9786,"nachzu":9787,"##enkung":9788,"herange":9789,"##farben":9790,"2015,":9791,"01.":9792,"##Par":9793,"1917":9794,"zulässige":9795,"##gegenständlichen":9796,"Lokomot":9797,"Schall":9798,"##ilde":9799,"Street":9800,"Kanz":9801,"##emit":9802,"##firma":9803,"##pper":9804,"##sächs":9805,"##izierte":9806,"Mikro":9807,"nied":9808,"Unabhängigkeit":9809,"Golden":9810,"##CA":9811,"##ops":9812,"##gi":9813,"ebenda":9814,"1908":9815,"kleineren":9816,"beeinträcht":9817,"Akte":9818,"bürger":9819,"Nutzungs":9820,"##alte":9821,"Panzer":9822,"##utung":9823,"Sprech":9824,"Wiesb":9825,"##rate":9826,"##sieht":9827,"zentrale":9828,"mittleren":9829,"Ihnen":9830,"Argentin":9831,"Tempel":9832,"##zeichnete":9833,"##ieb":9834,"##gf":9835,"üblich":9836,"Helmut":9837,"begleitet":9838,"Phase":9839,"sin":9840,"##geschwindigkeit":9841,"Dial":9842,"Umfeld":9843,"##201":9844,"Publ":9845,"Belgien":9846,"##einbarung":9847,"Wahrheit":9848,"##freien":9849,"Wicht":9850,"##air":9851,"##ernt":9852,"##länge":9853,"##omet":9854,"##anuel":9855,"Gebir":9856,"##oto":9857,"##aufen":9858,"##begründung":9859,"##200":9860,"##bor":9861,"Fla":9862,"Geschäfte":9863,"1907":9864,"Untersuchungs":9865,"##ZB":9866,"##teren":9867,"Emp":9868,"fünften":9869,"##einheiten":9870,"Trotzdem":9871,"##anal":9872,"State":9873,"##kapital":9874,"Sau":9875,"gänz":9876,"ergebe":9877,"Sauer":9878,"Entschä":9879,"Wiesbaden":9880,"Hitler":9881,"golden":9882,"2007,":9883,"##heblich":9884,"Trieb":9885,"Pek":9886,"ehren":9887,"Sha":9888,"zuständige":9889,"##edikt":9890,"technische":9891,"##stedt":9892,"##fügung":9893,"wächst":9894,"##eignet":9895,"##57":9896,"port":9897,"beherr":9898,"Mir":9899,"Rod":9900,"##reuen":9901,"zählte":9902,"verlängert":9903,"Werbung":9904,"##Bet":9905,"Ron":9906,"geringen":9907,"##51":9908,"Argument":9909,"##kes":9910,"##inischen":9911,"ausgesch":9912,"##atsächlich":9913,"##einkommen":9914,"Übergangs":9915,"##iety":9916,"krä":9917,"##89":9918,"geschlagen":9919,"frist":9920,"##atal":9921,"##sert":9922,"verweist":9923,"Erweiterung":9924,"##räsidentschaft":9925,"zweier":9926,"##berechtigten":9927,"Leop":9928,"Schneider":9929,"##kal":9930,"##low":9931,"keinerlei":9932,"schwierig":9933,"##mont":9934,"Gipfel":9935,"eingegangen":9936,"schuf":9937,"Institute":9938,"betra":9939,"##IA":9940,"domin":9941,"mehrerer":9942,"sonstigen":9943,"Bibliothek":9944,"##59":9945,"##ähn":9946,"##orient":9947,"Begeg":9948,"vermeint":9949,"##BAG":9950,"Rio":9951,"##quart":9952,"Barbar":9953,"verkaufen":9954,"Stimm":9955,"weißen":9956,"Gemälde":9957,"##hers":9958,"Asien":9959,"Lärm":9960,"gewerb":9961,"komplex":9962,"Maßgabe":9963,"Arbeitsp":9964,"benötigt":9965,"latein":9966,"inne":9967,"Farbe":9968,"1905":9969,"##ätte":9970,"Gemeinderat":9971,"Prior":9972,"Kommentar":9973,"vorgelegten":9974,"Koll":9975,"geriet":9976,"Werken":9977,"##Med":9978,"hart":9979,"Eigentum":9980,"Reisen":9981,"beantwor":9982,"anfangs":9983,"beziehen":9984,"##ucher":9985,"ARD":9986,"##essern":9987,"2,5":9988,"Bos":9989,"Ausschuss":9990,"Cre":9991,"##leistungs":9992,"##ausbildung":9993,"##zeitlich":9994,"Ell":9995,"eingest":9996,"Gebäudes":9997,"präsentiert":9998,"##ärme":9999,"tarif":10000,"##enken":10001,"##verständnis":10002,"entf":10003,"unterstellt":10004,"überwie":10005,"Rechtslage":10006,"geschützt":10007,"Heiz":10008,"##eiteten":10009,"post":10010,"passen":10011,"Dieter":10012,"##MS":10013,"##setzungs":10014,"Tarifvertrag":10015,"üblichen":10016,"##isen":10017,"##verhalten":10018,"##lor":10019,"Beamte":10020,"Vorschlag":10021,"##reche":10022,"##gentur":10023,"##unen":10024,"verfüg":10025,"auszuschließen":10026,"Freiheits":10027,"mächt":10028,"Betreiber":10029,"Opern":10030,"##öder":10031,"Olympia":10032,"Ensem":10033,"scheiterte":10034,"Ox":10035,"##spitze":10036,"besucht":10037,"umfasste":10038,"geklärt":10039,"aufgegeben":10040,"Erhöhung":10041,"Kris":10042,"Fortsch":10043,"brauchen":10044,"Tit":10045,"mittelalter":10046,"Jahrgang":10047,"Gläubiger":10048,"Ess":10049,"Service":10050,"##obel":10051,"Geräte":10052,"##OS":10053,"##Band":10054,"seither":10055,"Identität":10056,"Schlüssel":10057,"Pen":10058,"##heil":10059,"##partner":10060,"Schröder":10061,"Yor":10062,"Angesichts":10063,"##ärten":10064,"##field":10065,"gesonder":10066,"Saal":10067,"Barcel":10068,"##organ":10069,"verwenden":10070,"08":10071,"##kurs":10072,"##lieb":10073,"Vereine":10074,"##entwick":10075,"regu":10076,"##ati":10077,"##ettet":10078,"erreichten":10079,"##TA":10080,"gänzlich":10081,"##wirksam":10082,"Gefühl":10083,"Ordnungs":10084,"Fleisch":10085,"Ursache":10086,"##etenz":10087,"holte":10088,"erober":10089,"hinreichen":10090,"##widr":10091,"66":10092,"römisch":10093,"rechtliche":10094,"##lowakei":10095,"##teilten":10096,"Bereit":10097,"Tüb":10098,"##/07":10099,"schied":10100,"vorange":10101,"Ermessens":10102,"chem":10103,"Schal":10104,"stimm":10105,"aufs":10106,"##rondiss":10107,"Gebieten":10108,"schaffte":10109,"Span":10110,"Breite":10111,"benachbarten":10112,"##gelte":10113,"##lagt":10114,"##autor":10115,"Königin":10116,"Py":10117,"wann":10118,"lernte":10119,"##oche":10120,"##periode":10121,"Hierbei":10122,"##erven":10123,"##inhaber":10124,"##oping":10125,"##zogenen":10126,"##führerin":10127,"##mühle":10128,"##gefunden":10129,"seinerzeit":10130,"schneller":10131,"##reihe":10132,"vors":10133,"anb":10134,"erkannt":10135,"preußischen":10136,"phys":10137,"##BS":10138,"Entstehung":10139,"Kapitel":10140,"immerhin":10141,"##Met":10142,"##gere":10143,"kurzer":10144,"Kein":10145,"ries":10146,"ältesten":10147,"##fäll":10148,"##brech":10149,"Donald":10150,"überall":10151,"Umbau":10152,"##voraus":10153,"##stellers":10154,"tschech":10155,"##Fin":10156,"##Anhalt":10157,"##minist":10158,"Ermittlung":10159,"frag":10160,"##denkmal":10161,"finanzielle":10162,"##Serie":10163,"##zem":10164,"##öz":10165,"Integration":10166,"vorläufigen":10167,"##ipend":10168,"arab":10169,"##zügen":10170,"Tatsächlich":10171,"israel":10172,"traten":10173,"spezial":10174,"##möglichkeit":10175,"promoviert":10176,"charakter":10177,"gerichtet":10178,"Verfüg":10179,"Vorrat":10180,"überein":10181,"Basel":10182,"meiner":10183,"##krise":10184,"Leiden":10185,"mutmaß":10186,"überraschend":10187,"derselben":10188,"tat":10189,"##Aut":10190,"##lagern":10191,"angemessenen":10192,"warten":10193,"##meisterschaft":10194,"Arbeitslosen":10195,"Operation":10196,"##aktionen":10197,"House":10198,"Weiterhin":10199,"genauso":10200,"Anwendungs":10201,"##gekommen":10202,"##alem":10203,"Stab":10204,"as":10205,"Anne":10206,"Aufmerksamkeit":10207,"##aillen":10208,"##aterialien":10209,"unbedingt":10210,"Group":10211,"zentral":10212,"##);":10213,"##schungen":10214,"Sei":10215,"##änderten":10216,"Nap":10217,"##ütter":10218,"Messe":10219,"##RA":10220,"##akademie":10221,"##sson":10222,"Bedür":10223,"Jon":10224,"aa":10225,"eingelegt":10226,"##meier":10227,"gestiegen":10228,"anlässlich":10229,"##hy":10230,"Green":10231,"Sankt":10232,"gaben":10233,"Grundsätze":10234,"Kritiker":10235,"praktisch":10236,"Mathematik":10237,"##ahe":10238,"Apothe":10239,"Zuständigkeit":10240,"Hollywood":10241,"##bewerber":10242,"digit":10243,"Dichter":10244,"bessere":10245,"Beschlüsse":10246,"##leiten":10247,"##brig":10248,"Nutzer":10249,"##rans":10250,"Freien":10251,"Protokoll":10252,"##Klasse":10253,"##emburg":10254,"verblieben":10255,"Demokratie":10256,"##/15":10257,"Arrondiss":10258,"VII":10259,"##vorsitzender":10260,"##Am":10261,"##rs":10262,"##ieh":10263,"##deckte":10264,"##schirm":10265,"##iki":10266,"beachten":10267,"kn":10268,"##achteil":10269,"1906":10270,"Unser":10271,"Weis":10272,"reduziert":10273,"##AZR":10274,"Vergabe":10275,"##81":10276,"Noten":10277,"##ürzung":10278,"[unused_punctuation18]":10279,"Schwa":10280,"Fein":10281,"nachvollziehbar":10282,"Heinz":10283,"##ifik":10284,"finanziell":10285,"örtlichen":10286,"Schau":10287,"##KW":10288,"PS":10289,"##gesetzte":10290,"##skraft":10291,"veranst":10292,"##engl":10293,"Norwegen":10294,"##zelt":10295,"##ersatz":10296,"Meyer":10297,"##konzept":10298,"Bewill":10299,"Ve":10300,"Trend":10301,"##ethe":10302,"Emil":10303,"moderne":10304,"##lament":10305,"gelegene":10306,"rom":10307,"bayerischen":10308,"##otyp":10309,"zwanzig":10310,"Elf":10311,"##geräte":10312,"##lehrer":10313,"Deleg":10314,"##elen":10315,"##barungen":10316,"vorzuhalten":10317,"tät":10318,"62":10319,"##schlagen":10320,"ermor":10321,"##quote":10322,"unan":10323,"abgesehen":10324,"abges":10325,"##ema":10326,"##platten":10327,"definiert":10328,"stabil":10329,"vorne":10330,"##studium":10331,"##wahrscheinlich":10332,"glaubt":10333,"##rugen":10334,"8,":10335,"Variante":10336,"Vollstreckung":10337,"##affung":10338,"Aff":10339,"##önt":10340,"##gefahr":10341,"##ummern":10342,"jüngsten":10343,"Hau":10344,"gerichtlichen":10345,"09":10346,"##örte":10347,"Anti":10348,"Schriften":10349,"59":10350,"Fell":10351,"befördert":10352,"##sey":10353,"##ohnt":10354,"Spuren":10355,"greift":10356,"ergänzt":10357,"##fahrten":10358,"Kassel":10359,"Fü":10360,"##klagten":10361,"##ilen":10362,"##Min":10363,"(17":10364,"Acker":10365,"##atorium":10366,"Kombination":10367,"Tsch":10368,"Funktionen":10369,"Dampf":10370,"ursprüngliche":10371,"Lasten":10372,"Zy":10373,"##menge":10374,"##essung":10375,"Brie":10376,"bisherige":10377,"gelangen":10378,"Sak":10379,"Finn":10380,"##zeichnen":10381,"Pfarrkirche":10382,"##boden":10383,"Spur":10384,"stat":10385,"##Rep":10386,"Krei":10387,"zusätzlichen":10388,"##team":10389,"mitgeteilt":10390,"Horn":10391,"Außenminister":10392,"##fle":10393,"##ogt":10394,"Erkenntnisse":10395,"##ileg":10396,"Tar":10397,"##etts":10398,"begehrt":10399,"schwarzen":10400,"gelassen":10401,"löste":10402,"Il":10403,"Austral":10404,"##hauptstadt":10405,"IX":10406,"##wettbewerb":10407,"Barcelona":10408,"##öll":10409,"beobachtet":10410,"##Sieg":10411,"Songs":10412,"Prinz":10413,"Stephan":10414,"##Ho":10415,"May":10416,"##logen":10417,"Projekte":10418,"##freund":10419,"Link":10420,"Schild":10421,"ältere":10422,"##ikon":10423,"hell":10424,"Magdeburg":10425,"militärischen":10426,"nachhalt":10427,"##Ma":10428,"Freu":10429,"sichern":10430,"Off":10431,"Kaisers":10432,"85":10433,"##entscheid":10434,"Archä":10435,"Pra":10436,"68":10437,"Erkrankung":10438,"Bein":10439,"##üben":10440,"##indern":10441,"##pla":10442,"Spren":10443,"Donau":10444,"ausreichende":10445,"##fähigen":10446,"Planungs":10447,"Geschichten":10448,"ter":10449,"##Vw":10450,"Braun":10451,"##isst":10452,"dat":10453,"Jacob":10454,"##zesse":10455,"Marie":10456,"Kurfür":10457,"##ächsischen":10458,"Ok":10459,"##dungen":10460,"Engel":10461,"Edward":10462,"feierte":10463,"Bestehen":10464,"##gelände":10465,"Krist":10466,"##oslaw":10467,"##redakteur":10468,"Ereignisse":10469,"##Gem":10470,"##demokrat":10471,"Darmstadt":10472,"##halter":10473,"##fahrzeug":10474,"##zustand":10475,"##rain":10476,"63":10477,"##able":10478,"belg":10479,"##stitution":10480,"existieren":10481,"rü":10482,"katholische":10483,"grenzt":10484,"ergänz":10485,"Journalist":10486,"Selbstschutz":10487,"##aker":10488,"Wurzel":10489,"##ungsantrag":10490,"Big":10491,"Gatt":10492,"##lösen":10493,"Boot":10494,"##gebühren":10495,"Mannheim":10496,"registr":10497,"##Film":10498,"kür":10499,"Risiken":10500,"Göttingen":10501,"##ößt":10502,"gefordert":10503,"Gegenwart":10504,"[]":10505,"##itor":10506,"##Co":10507,"##lagert":10508,"##cen":10509,"##ahls":10510,"##einsatz":10511,"##strahlung":10512,"nochmals":10513,"##veranstalt":10514,"geeignete":10515,"1500":10516,"Bert":10517,"##ci":10518,"Labor":10519,"Leichtathlet":10520,"Boch":10521,"hinweg":10522,"##amter":10523,"##druckt":10524,"##schnitte":10525,"##oz":10526,"äußerst":10527,"tatsächliche":10528,"Architekt":10529,"kämpf":10530,"##heber":10531,"##pflanz":10532,"##gegenüber":10533,"Arbeitsplatz":10534,"##schäd":10535,"Gabriel":10536,"alleine":10537,"Indust":10538,"BVerwGE":10539,"entstandenen":10540,"popu":10541,"Eigenschaften":10542,"67":10543,"Kön":10544,"promovierte":10545,"##auten":10546,"##gelegen":10547,"wirtschaftlich":10548,"##anbul":10549,"##aka":10550,"##pal":10551,"##otor":10552,"verbrei":10553,"##wechselt":10554,"dürfe":10555,"Herbert":10556,"##stufe":10557,"##splan":10558,"amt":10559,"Verf":10560,"##zeigt":10561,"mündet":10562,"Vertrauens":10563,"##isa":10564,"aufmer":10565,"Organisationen":10566,"Investoren":10567,"07":10568,"StGB":10569,"##hochschule":10570,"##kür":10571,"hum":10572,"Halte":10573,"zumeist":10574,"Prüfungs":10575,"##ido":10576,"##traum":10577,"1890":10578,"##ettel":10579,"verabschie":10580,"Börse":10581,"##zep":10582,"gefert":10583,"##geordnete":10584,"Anfecht":10585,"Quartal":10586,"##ves":10587,"##macher":10588,"##eting":10589,"betonte":10590,"zufrieden":10591,"offizielle":10592,"##vard":10593,"erfolgreichen":10594,"beantragte":10595,"1:":10596,"Ral":10597,"##ED":10598,"Grundstücke":10599,"Jugendlichen":10600,"##steine":10601,"##Cl":10602,"##perrt":10603,"##graf":10604,"##nüpft":10605,"##henden":10606,"##mord":10607,"Ski":10608,"glob":10609,"##vi":10610,"Auge":10611,"zogen":10612,"Vorwürfe":10613,"##Meister":10614,"Gegenteil":10615,"Weihnachts":10616,"Konrad":10617,"##schlossen":10618,"übergeben":10619,"##stes":10620,"##schutzes":10621,"Portugal":10622,"intensiv":10623,"Bayer":10624,"Gemeindegebiet":10625,"##RR":10626,"Methode":10627,"Schuss":10628,"einzig":10629,"kaufen":10630,"Terr":10631,"2006,":10632,"profession":10633,"Mä":10634,"##VP":10635,"##duktion":10636,"1909":10637,"##gerät":10638,"Sche":10639,"schlä":10640,"##berater":10641,"Kalender":10642,"##ausschusses":10643,"##ubs":10644,"Az":10645,"bewegen":10646,"Imp":10647,"King":10648,"##onien":10649,"Margar":10650,"Weltcup":10651,"seitens":10652,"Leib":10653,"Archiv":10654,"Lizenz":10655,"Vielleicht":10656,"Medik":10657,"erstellt":10658,"schwedischen":10659,"Schnee":10660,"Weimar":10661,"versteht":10662,"##ronen":10663,"Verbands":10664,"studiert":10665,"##Haus":10666,"gedacht":10667,"Mieter":10668,"##mete":10669,"RdNr":10670,"bewohn":10671,"sorgte":10672,"heran":10673,"Thüringen":10674,"schmal":10675,"##vermögen":10676,"allenfalls":10677,"Symbol":10678,"Alternative":10679,"Sound":10680,"getan":10681,"erweiter":10682,"Erlaubnis":10683,"wesentliche":10684,"##auss":10685,"gescheiter":10686,"2019":10687,"Dagegen":10688,"##ordnungen":10689,"kirch":10690,"Löwen":10691,"Theodor":10692,"Schlaf":10693,"##otischen":10694,"beteiligten":10695,"Zusätzlich":10696,"bewaffneten":10697,"Bestands":10698,"##orweg":10699,"Höhepunkt":10700,"Lös":10701,"Mult":10702,"Belastung":10703,"wichtigste":10704,"1904":10705,"leiten":10706,"##Team":10707,"##fenster":10708,"Michel":10709,"##kar":10710,"##verordnung":10711,"##brechen":10712,"700":10713,"##äußert":10714,"##onne":10715,"überzeu":10716,"entscheidend":10717,"##sive":10718,"dunkel":10719,"Que":10720,"part":10721,"Frucht":10722,"anzunehmen":10723,"##sph":10724,"Bremer":10725,"Ingenieur":10726,"dün":10727,"Inzwischen":10728,"Glob":10729,"Partie":10730,"gegebenenfalls":10731,"AfD":10732,"##pass":10733,"davor":10734,"Metrop":10735,"Touristen":10736,"##.000,00":10737,"Porträt":10738,"Aben":10739,"trocken":10740,"##brand":10741,"##bew":10742,"##pflichtigen":10743,"verfügen":10744,"Baut":10745,"Pflichten":10746,"umgesetzt":10747,"##freie":10748,"Analyse":10749,"##isation":10750,"##wirtschafts":10751,"##ario":10752,"##.2003":10753,"##undet":10754,"altern":10755,"##vorsorge":10756,"Tol":10757,"Schatten":10758,"vermutet":10759,"##-1":10760,"##jan":10761,"Neuer":10762,"brutto":10763,"Folgenden":10764,"Ri":10765,"Mars":10766,"Academ":10767,"Damals":10768,"Hochschul":10769,"teilnehmen":10770,"stattdessen":10771,"##ückt":10772,"##onischen":10773,"##ms":10774,"Gespräche":10775,"gesichert":10776,"##karten":10777,"liegende":10778,"##Sen":10779,"##rol":10780,"landes":10781,"##ppt":10782,"Zit":10783,"Baur":10784,"1860":10785,"angep":10786,"Vorwurf":10787,"##Gro":10788,"##einrichtungen":10789,"##Lin":10790,"Poly":10791,"##opol":10792,"Jub":10793,"Mannes":10794,"Alles":10795,"Hände":10796,"deb":10797,"Methoden":10798,"Zahlungs":10799,"Mittelpunkt":10800,"##maschine":10801,"Ursprünglich":10802,"Verbreitung":10803,"Beton":10804,"##rix":10805,"Zugleich":10806,"verhindert":10807,"Worte":10808,"##junktur":10809,"erfolglos":10810,"Schach":10811,"Angabe":10812,"##col":10813,"##zinssatz":10814,"Gouverneur":10815,"##arburg":10816,"##8)":10817,"Vorbereitung":10818,"##La":10819,"Diesel":10820,"##seud":10821,"Els":10822,"##ska":10823,"Therapie":10824,"Siedlungs":10825,"Rohr":10826,"##prom":10827,"Junge":10828,"Maße":10829,"Weibchen":10830,"##Stud":10831,"##ilber":10832,"##Mail":10833,"Details":10834,"##ged":10835,"Abgabe":10836,"##fertigung":10837,"Rates":10838,"##mie":10839,"befanden":10840,"eigenständige":10841,"Society":10842,"##agne":10843,"vari":10844,"1915":10845,"vergessen":10846,"Abgeordneter":10847,"##bein":10848,"Hals":10849,"Altar":10850,"Vorsitzenden":10851,"vorgesehenen":10852,"##metho":10853,"##jah":10854,"künst":10855,"##zwe":10856,"Eg":10857,"Kooperation":10858,"##mir":10859,"stehende":10860,"protest":10861,"##bescheides":10862,"##beschäft":10863,"##ous":10864,"##herrschaft":10865,"Darin":10866,"informiert":10867,"Flüchtling":10868,"##rechnungs":10869,"Verkaufs":10870,"##uz":10871,"Karte":10872,"manchen":10873,"Tourismus":10874,"Rumän":10875,"kleines":10876,"02":10877,"erbracht":10878,"geschehen":10879,"##For":10880,"lernen":10881,"Liebes":10882,"bevorzu":10883,"Historiker":10884,"entwickelten":10885,"gesetzlich":10886,"##cia":10887,"##liehen":10888,"Mary":10889,"##gelung":10890,"Seitdem":10891,"##gor":10892,"tut":10893,"glauben":10894,"Patent":10895,"gewisse":10896,"##gast":10897,"Blau":10898,"Zahlungen":10899,"##ero":10900,"##usk":10901,"südöstlich":10902,"##berat":10903,"diejenigen":10904,"konvention":10905,"Physik":10906,"##MA":10907,"Filmen":10908,"Konto":10909,"##pst":10910,"Adam":10911,"##aufnahmen":10912,"Europe":10913,"verhaftet":10914,"Vorjahr":10915,"##wende":10916,"##hler":10917,"Zut":10918,"Übersetzung":10919,"##yk":10920,"##elor":10921,"Pariser":10922,"Treffer":10923,"##,50":10924,"##material":10925,"Profess":10926,"##seln":10927,"Weber":10928,"Lob":10929,"Gebiets":10930,"Fraktion":10931,"##lar":10932,"##mutter":10933,"Gramm":10934,"##platte":10935,"##richen":10936,"##abet":10937,"1899":10938,"##korea":10939,"Center":10940,"gezwungen":10941,"Szenen":10942,"##begriff":10943,"##ythm":10944,"##tal":10945,"06":10946,"ähnliche":10947,"Herausgeber":10948,"##elev":10949,"##stellerin":10950,"##.198":10951,"##abschnitt":10952,"internen":10953,"##orenz":10954,"Gesang":10955,"##Sh":10956,"Epis":10957,"77":10958,"##erben":10959,"##ammern":10960,"##Zeitung":10961,"Handlungs":10962,"BMW":10963,"beseit":10964,"Mittelfeld":10965,"Lit":10966,"verdient":10967,"##era":10968,"Install":10969,"##bereitet":10970,"einfachen":10971,"Cat":10972,"vergleichbar":10973,"verzichtet":10974,"##klang":10975,"Latein":10976,"Tunnel":10977,"ggf":10978,"Preuß":10979,"ermitteln":10980,"spezif":10981,"##werfen":10982,"Davon":10983,"##oma":10984,"##wel":10985,"##quelle":10986,"englische":10987,"Verbindungen":10988,"gelte":10989,"Verträge":10990,"Eintracht":10991,"Niederlanden":10992,"Times":10993,"Instrument":10994,"ausgebaut":10995,"oberhalb":10996,"Heb":10997,"Brot":10998,"Positionen":10999,"##aiss":11000,"##ehle":11001,"##mack":11002,"##polizei":11003,"südwestlich":11004,"##isser":11005,"VIII":11006,"angebracht":11007,"roten":11008,"##mension":11009,"Nachbarn":11010,"saß":11011,"Istanbul":11012,"Handeln":11013,"##ugh":11014,"##umenten":11015,"##orrespondent":11016,"##zusammen":11017,"Buchsta":11018,"##atürlich":11019,"##mond":11020,"2005,":11021,"Sprung":11022,"##viel":11023,"Pod":11024,"schlechter":11025,"##lassungs":11026,"Beschlusses":11027,"Zeug":11028,"Apple":11029,"##trainer":11030,"##ulpt":11031,"Oster":11032,"##finition":11033,"Betr":11034,"##dies":11035,"##ammelt":11036,"einfache":11037,"erhöhen":11038,"verwendete":11039,"1870":11040,"Yo":11041,"Neum":11042,"##put":11043,"Wird":11044,"Wissenschaften":11045,"EuGH":11046,"##bereiche":11047,"verfügte":11048,"##stiegs":11049,"Englisch":11050,"Eduard":11051,"Hierzu":11052,"Wunder":11053,"Salzburg":11054,"gelingt":11055,"1916":11056,"Jeden":11057,"fielen":11058,"aktiven":11059,"##bro":11060,"##waffe":11061,"Orden":11062,"##teilungen":11063,"breiten":11064,"Handball":11065,"gestützt":11066,"verrin":11067,"##2-":11068,"Wettbewerbs":11069,"##/06":11070,"benannte":11071,"langer":11072,"##zieher":11073,"Trinkwasser":11074,"Absch":11075,"Schum":11076,"verkehr":11077,"Internationale":11078,"##ckel":11079,"Altstadt":11080,"denken":11081,"##Um":11082,"##entin":11083,"hinten":11084,"Mic":11085,"Anteile":11086,"##maschinen":11087,"##räsentantenhaus":11088,"Staatsange":11089,"##ladung":11090,"Laden":11091,"Schne":11092,"Smart":11093,"Rab":11094,"urkundlich":11095,"Umsatzsteuer":11096,"Infrastruktur":11097,"kämpfen":11098,"belegen":11099,"##legungs":11100,"##turm":11101,"Mah":11102,"Instituts":11103,"##ivision":11104,"schlechte":11105,"Kle":11106,"##entum":11107,"##dis":11108,"Mari":11109,"gefährdet":11110,"##ikte":11111,"Benedikt":11112,"##Anlage":11113,"##beding":11114,"##Ph":11115,"##gibt":11116,"##preise":11117,"freier":11118,"##Nieder":11119,"##spräsident":11120,"Arrondissement":11121,"##rel":11122,"##gewachsen":11123,"abschließen":11124,"##räuch":11125,"aufmerksam":11126,"Slo":11127,"wichtiges":11128,"Dank":11129,"Smith":11130,"anzuwenden":11131,"NA":11132,"Notfall":11133,"vollstreck":11134,"Gemeinschafts":11135,"Branche":11136,"##Bes":11137,"behandeln":11138,"Datum":11139,"Jedoch":11140,"Greg":11141,"Abwägung":11142,"##eiler":11143,"Religions":11144,"##ßer":11145,"beinhal":11146,"##machen":11147,"##vorstand":11148,"Herzogt":11149,"1901":11150,"Freis":11151,"leiden":11152,"mehrmals":11153,"effekt":11154,"##ckte":11155,"Oberverwaltungs":11156,"##ärte":11157,"##ehrer":11158,"##betreiber":11159,"##ador":11160,"Kassen":11161,"führenden":11162,"##sprüfung":11163,"ergänzen":11164,"geschickt":11165,"selber":11166,"##Sport":11167,"Schei":11168,"Äm":11169,"Erklär":11170,"unstreitig":11171,"Leopold":11172,"Maßstab":11173,"teuer":11174,"Arme":11175,"Somit":11176,"##ergebnis":11177,"##telle":11178,"##ordnete":11179,"##schlüsse":11180,"Verjähr":11181,"verlieren":11182,"Wirtschaftsk":11183,"Bogen":11184,"##imir":11185,"##beziehung":11186,"##ordneten":11187,"Jahrzehnte":11188,"##EC":11189,"rasch":11190,"Tübingen":11191,"verurteilen":11192,"Digital":11193,"Grundsätzen":11194,"##Star":11195,"gezahlt":11196,"##vereinigung":11197,"gestellten":11198,"Lar":11199,"nordöstlich":11200,"Betriebe":11201,"##aiser":11202,"Still":11203,"verbleiben":11204,"Gymnas":11205,"Mitteilung":11206,"101":11207,"festgenommen":11208,"Premierminister":11209,"##Br":11210,"Kräfte":11211,"beanspruch":11212,"XII":11213,"2004,":11214,"Töchter":11215,"beschloss":11216,"##Ro":11217,"##osa":11218,"##jo":11219,"IT":11220,"##otball":11221,"beeinflusst":11222,"##tor":11223,"##interesse":11224,"Verhaltens":11225,"##ques":11226,"fertiggestellt":11227,"VG":11228,"Press":11229,"Vizep":11230,"##Fran":11231,"Science":11232,"##apel":11233,"Denkmalschutz":11234,"rechtmäßig":11235,"Ihm":11236,"met":11237,"##führungs":11238,"Komponist":11239,"Fam":11240,"Franzisk":11241,"Gei":11242,"##örg":11243,"##leihung":11244,"Zucker":11245,"gesundheit":11246,"Bauch":11247,"##otische":11248,"herausgegeben":11249,"##let":11250,"Masse":11251,"Räume":11252,"Stimmung":11253,"##asien":11254,"Astron":11255,"Mangel":11256,"##führers":11257,"zeitgenöss":11258,"##erkt":11259,"Felder":11260,"##einrichtung":11261,"Ener":11262,"Magazin":11263,"##itim":11264,"##angebot":11265,"##emp":11266,"Zuschau":11267,"Austausch":11268,"Beispiele":11269,"Investition":11270,"Unterschiede":11271,"Ax":11272,"Bald":11273,"Grafschaft":11274,"##entlich":11275,"dreimal":11276,"##dienstes":11277,"##hob":11278,"vierte":11279,"Ereignis":11280,"##utete":11281,"Doktor":11282,"Überra":11283,"Erwägungen":11284,"eigentlichen":11285,"Niveau":11286,"##unfähigkeit":11287,"##TL":11288,"Flag":11289,"Fortsetzung":11290,"erlangte":11291,"Vorstellungen":11292,"Blan":11293,"##ctor":11294,"Gerichte":11295,"desselben":11296,"##elli":11297,"##olen":11298,"##wann":11299,"Orient":11300,"längere":11301,"sichtbar":11302,"Fertig":11303,"Jesu":11304,"##geordneten":11305,"generell":11306,"1903":11307,"getreten":11308,"abgerissen":11309,"retten":11310,"##erte":11311,"Neur":11312,"##BVerwG":11313,"##pression":11314,"Verteidiger":11315,"Tha":11316,"##rest":11317,"result":11318,"##abilität":11319,"Angriffs":11320,"Glocken":11321,"##äck":11322,"##verk":11323,"Anträge":11324,"##ftiger":11325,"##zeichnis":11326,"##FC":11327,"Kontroll":11328,"zwingend":11329,"Präsidentschaft":11330,"sicherzustellen":11331,"derartige":11332,"##ueller":11333,"##russ":11334,"Ruhr":11335,"Baus":11336,"lasse":11337,"Apost":11338,"Schott":11339,"Abschied":11340,"##stuf":11341,"Betreuung":11342,"öff":11343,"##drängt":11344,"Würzburg":11345,"##ssitz":11346,"##gier":11347,"##anst":11348,"diskutiert":11349,"##kommun":11350,"vertrieben":11351,"##ogan":11352,"Brücken":11353,"nordwestlich":11354,"schwei":11355,"##karte":11356,"ergab":11357,"Fahrrad":11358,"Ägypten":11359,"##verteidigung":11360,"Basiszinssatz":11361,"##DAP":11362,"Fab":11363,"Müll":11364,"rechtzeitig":11365,"##Druck":11366,"ändert":11367,"Sängerin":11368,"##Über":11369,"##sse":11370,"geschlossenen":11371,"##idar":11372,"##eitungs":11373,"kaufte":11374,"daneben":11375,"gemessen":11376,"übernimmt":11377,"61":11378,"Stufe":11379,"Finger":11380,"##Platz":11381,"Instanz":11382,"Daraus":11383,"##förderung":11384,"vorzunehmen":11385,"##grä":11386,"##rüstung":11387,"Schreib":11388,"Bistum":11389,"##spektive":11390,"Schicksal":11391,"##runden":11392,"Solche":11393,"bestritten":11394,"##rut":11395,"Bulgar":11396,"Prognose":11397,"Sperr":11398,"##werbung":11399,"guter":11400,"Bio":11401,"1902":11402,"##formation":11403,"##kommission":11404,"##schenden":11405,"##Jahrhunderts":11406,"Verbesserung":11407,"Amateur":11408,"##prüf":11409,"##uhren":11410,"##üssig":11411,"##hälter":11412,"##schrau":11413,"##paratur":11414,"Reiter":11415,"Empfehl":11416,"03":11417,"##weiler":11418,"Briten":11419,"##waren":11420,"And":11421,"ol":11422,"##teln":11423,"Soz":11424,"Klosters":11425,"##gypt":11426,"Manche":11427,"Veräußer":11428,"##zulassen":11429,"##asten":11430,"Verbrechen":11431,"##fehls":11432,"dram":11433,"krie":11434,"bezeichneten":11435,"##orb":11436,"##klage":11437,"Irland":11438,"##kern":11439,"innen":11440,"Pok":11441,"Tot":11442,"achten":11443,"Abkommen":11444,"72":11445,"positive":11446,"liefer":11447,"##beteiligung":11448,"Einwohnerzahl":11449,"Mid":11450,"Pfarrei":11451,"traditionellen":11452,"Bele":11453,"anwend":11454,"Lange":11455,"Sachen":11456,"Amster":11457,"##BGB":11458,"Kie":11459,"Spaß":11460,"Befreiung":11461,"angewiesen":11462,"Gerät":11463,"10,":11464,"Bush":11465,"dauerhaft":11466,"womit":11467,"Ferien":11468,"Kriegsende":11469,"##leisten":11470,"##monat":11471,"ansonsten":11472,"##herapeut":11473,"Lam":11474,"##gebend":11475,"Kader":11476,"Bundestags":11477,"##unc":11478,"Law":11479,"Sec":11480,"Rats":11481,"erbr":11482,"Missbrauch":11483,"Ministerium":11484,"theoret":11485,"hilft":11486,"gelangt":11487,"struktur":11488,"Beschreibung":11489,"alter":11490,"##weil":11491,"Berechn":11492,"##hängigkeit":11493,"##bergs":11494,"enger":11495,"##ebene":11496,"Territorium":11497,"Verluste":11498,"Kontra":11499,"Grunds":11500,"Wirksamkeit":11501,"FGO":11502,"Redaktion":11503,"überschritten":11504,"norweg":11505,"Peking":11506,"1848":11507,"##holm":11508,"Sir":11509,"##ritter":11510,"Kaffe":11511,"##aufwand":11512,"Stadtrat":11513,"Lands":11514,"##telligen":11515,"##IC":11516,"Alarm":11517,"jüngeren":11518,"##änomen":11519,"enttäu":11520,"überprüfen":11521,"transport":11522,"##GmbH":11523,"lokalen":11524,"durchsetzen":11525,"##schulden":11526,"##fo":11527,"9,":11528,"Hem":11529,"Erhalt":11530,"ernannte":11531,"stammte":11532,"Bundesamt":11533,"leg":11534,"bewegt":11535,"Sollte":11536,"##Amer":11537,"##inent":11538,"##roh":11539,"##besitzer":11540,"Verletzungen":11541,"§9":11542,"##holungs":11543,"Mitteln":11544,"Beratung":11545,"Arbeitsmarkt":11546,"Probe":11547,"##familien":11548,"beschäftigte":11549,"häufiger":11550,"##posten":11551,"##dat":11552,"Bomben":11553,"gefolgt":11554,"East":11555,"##rachten":11556,"Association":11557,"gefragt":11558,"Einwander":11559,"##Gesellschaft":11560,"Abstieg":11561,"##anie":11562,"Mak":11563,"Lake":11564,"##streits":11565,"##instrum":11566,"##streifen":11567,"gefördert":11568,"##alteten":11569,"##geboren":11570,"##yan":11571,"Niederlande":11572,"Pokal":11573,"##BM":11574,"Konserv":11575,"1880":11576,"##olo":11577,"Maschine":11578,"Behauptung":11579,"Betriebsrat":11580,"##GG":11581,"##Mo":11582,"##raums":11583,"Funk":11584,"Roth":11585,"Bischofs":11586,"gewissen":11587,"Cr":11588,"Absicht":11589,"äußerte":11590,"##ungsvertrag":11591,"##mung":11592,"Kim":11593,"begeister":11594,"##erve":11595,"gewähren":11596,"Berichter":11597,"Adel":11598,"Mängel":11599,"geprüft":11600,"Regionall":11601,"##rein":11602,"##marsch":11603,"##verteidiger":11604,"##xtrem":11605,"kürz":11606,"event":11607,"Jahrh":11608,"Stationen":11609,"Straßenbahn":11610,"##ogramm":11611,"##betriebs":11612,"##wendet":11613,"reden":11614,"##herein":11615,"Ross":11616,"Erster":11617,"Bildhauer":11618,"heißen":11619,"Zuletzt":11620,"##strahlt":11621,"Dienste":11622,"##hü":11623,"Bedürf":11624,"##innung":11625,"Strafe":11626,"##All":11627,"Modelle":11628,"Ausstattung":11629,"##sturz":11630,"Tank":11631,"install":11632,"##büro":11633,"aaO":11634,"able":11635,"Erich":11636,"Zeitungen":11637,"##behalt":11638,"##sverl":11639,"Strand":11640,"Katastrophen":11641,"##Sta":11642,"##iot":11643,"##öger":11644,"interessiert":11645,"Kalten":11646,"##reibungen":11647,"bildeten":11648,"entsprechender":11649,"Ordens":11650,"##gutachten":11651,"##Form":11652,"Lieb":11653,"##gängen":11654,"Geschw":11655,"Mailand":11656,"besonderer":11657,"medizinischen":11658,"Prim":11659,"Rücksicht":11660,"##eilung":11661,"##well":11662,"##ault":11663,"Brut":11664,"Julius":11665,"##schiffe":11666,"gedreht":11667,"##beitrag":11668,"##verhältnisse":11669,"##läre":11670,"##athon":11671,"##itels":11672,"##unternehmer":11673,"selbständig":11674,"österreichische":11675,"Rent":11676,"##hans":11677,"erzielen":11678,"Angehörigen":11679,"Seg":11680,"##chtet":11681,"Oliver":11682,"Rend":11683,"##lechter":11684,"##aufsicht":11685,"widmete":11686,"Cann":11687,"Brown":11688,"Äußerungen":11689,"##schall":11690,"##arbeitete":11691,"Assistent":11692,"##banken":11693,"fortan":11694,"Kul":11695,"##mert":11696,"##ova":11697,"Sorge":11698,"##andten":11699,"##ennzeichnet":11700,"3000":11701,"##ransport":11702,"Krim":11703,"##asch":11704,"Mei":11705,"##grenzung":11706,"##hleten":11707,"abgew":11708,"Schwarzen":11709,"##icherheits":11710,"##kamp":11711,"Mercedes":11712,"ersetzen":11713,"beher":11714,"unzureichend":11715,"##gru":11716,"##ämpfung":11717,"Barbara":11718,"Pel":11719,"##ächte":11720,"verzichten":11721,"mobil":11722,"Gewässer":11723,"##hrop":11724,"Erschließ":11725,"Sy":11726,"Clin":11727,"Anklage":11728,"Rz":11729,"##hmann":11730,"ausgebildet":11731,"bezahlt":11732,"##umin":11733,"##sendung":11734,"Bereiche":11735,"unterlag":11736,"Lust":11737,"meinte":11738,"Manfred":11739,"##ungsverhältnis":11740,"##planung":11741,"Landrats":11742,"übersetzt":11743,"bewertet":11744,"##jenige":11745,"##ativer":11746,"Belange":11747,"Stattdessen":11748,"umgebaut":11749,"Hinsichtlich":11750,"##sz":11751,"##üstet":11752,"##auftragte":11753,"relevan":11754,"basiert":11755,"##ausstellung":11756,"Friedens":11757,"Gö":11758,"Griff":11759,"Anbieter":11760,"Sanierung":11761,"entscheidet":11762,"erlebt":11763,"Pierre":11764,"##üler":11765,"Academy":11766,"eingeschränkt":11767,"Monte":11768,"##utzer":11769,"richtige":11770,"Natürlich":11771,"Ev":11772,"Normen":11773,"Gesetze":11774,"begangen":11775,"##ages":11776,"Telekom":11777,"Kathar":11778,"British":11779,"geringe":11780,"Infanterie":11781,"Rol":11782,"Genehm":11783,"ausnahm":11784,"She":11785,"##ness":11786,"Anpassung":11787,"##icherheit":11788,"##lieferung":11789,"##CSU":11790,"fern":11791,"##usstsein":11792,"Edel":11793,"Element":11794,"Fähigkeiten":11795,"fordern":11796,"##issions":11797,"sowjetischen":11798,"##IP":11799,"##sicherheit":11800,"Stücke":11801,"##ündung":11802,"##gerichte":11803,"Hamm":11804,"##lasten":11805,"bezahlen":11806,"Town":11807,"##nacht":11808,"rief":11809,"##verständlich":11810,"Mitgliedstaat":11811,"Wehrmacht":11812,"Derzeit":11813,"Eng":11814,"##idenz":11815,"Pas":11816,"##vereins":11817,"Dritter":11818,"##ildert":11819,"##wertungs":11820,"leichter":11821,"##gliederung":11822,"Botschafter":11823,"Williams":11824,"schriftlich":11825,"gelangte":11826,"##worten":11827,"konstru":11828,"##büt":11829,"Wettbe":11830,"Häuf":11831,"vermag":11832,"zeigten":11833,"Beachtung":11834,"kä":11835,"##.\"":11836,"angem":11837,"us":11838,"Riesen":11839,"##don":11840,"##onto":11841,"Abzug":11842,"optim":11843,"voneinander":11844,"4-":11845,"Mengen":11846,"##lla":11847,"Premiere":11848,"Fur":11849,"##zeugs":11850,"##iro":11851,"Nar":11852,"##kran":11853,"Indiz":11854,"Wellen":11855,"freund":11856,"Christen":11857,"Kupfer":11858,"Jud":11859,"##US":11860,"Merkmal":11861,"denkmal":11862,"direkten":11863,"verliert":11864,"außergewöhn":11865,"verbessern":11866,"richtigen":11867,"Behandlungs":11868,"BR":11869,"##kenntnis":11870,"##omöglich":11871,"Past":11872,"Merkmale":11873,"Francisco":11874,"beschädigt":11875,"##ainer":11876,"##ühungen":11877,"##risch":11878,"versorgen":11879,"##arke":11880,"##enseits":11881,"Stärke":11882,"stelle":11883,"ehrenamt":11884,"Lor":11885,"1850":11886,"##bestimmung":11887,"##ussia":11888,"Schlei":11889,"expl":11890,"versicher":11891,"erläu":11892,"Aspe":11893,"Nachricht":11894,"einstweiligen":11895,"Promotion":11896,"Rechtssache":11897,"IC":11898,"##vertrags":11899,"wählen":11900,"vorder":11901,"Kompl":11902,"Eier":11903,"##bour":11904,"Sowohl":11905,"Geschwindigkeit":11906,"spezielle":11907,"Columb":11908,"Beste":11909,"mm":11910,"##tin":11911,"2:":11912,"##iene":11913,"##gäng":11914,"Beat":11915,"Siemens":11916,"Gewinner":11917,"##belastung":11918,"##syl":11919,"##Nord":11920,"##lenz":11921,"fördern":11922,"##plätzen":11923,"##steile":11924,"Nomin":11925,"Santa":11926,"unterstützte":11927,"Alben":11928,"breite":11929,"##chan":11930,"Wood":11931,"Grupp":11932,"XI":11933,"Würdigung":11934,"überlassen":11935,"menschlichen":11936,"##zins":11937,"McC":11938,"Landtagswahl":11939,"Investitionen":11940,"##agten":11941,"##ugoslaw":11942,"Signal":11943,"fert":11944,"Koordin":11945,"Betroffene":11946,"Bundestagswahl":11947,"lösen":11948,"Commun":11949,"##ierender":11950,"Bochum":11951,"##ließung":11952,"##aissance":11953,"Register":11954,"##gelten":11955,"##pack":11956,"(§1":11957,"städtischen":11958,"Versicherung":11959,"You":11960,"Penn":11961,"##lück":11962,"Bachelor":11963,"Anschlag":11964,"jüdische":11965,"nachträglich":11966,"##bevollmächtigten":11967,"Ut":11968,"##drohung":11969,"##höfe":11970,"Amtsgerichts":11971,"Fels":11972,"##zurechnen":11973,"Plast":11974,"Asylbewerber":11975,"##hamm":11976,"etc":11977,"Alexand":11978,"abstra":11979,"Krebs":11980,"Grundlagen":11981,"##igar":11982,"##lebens":11983,"Gemark":11984,"##reut":11985,"Römer":11986,"##verbindung":11987,"bedroht":11988,"Ferr":11989,"##BSG":11990,"jetz":11991,"Beleg":11992,"1898":11993,"Ermittler":11994,"##ube":11995,"Männchen":11996,"##hebt":11997,"politischer":11998,"##förmigen":11999,"Sign":12000,"##stermin":12001,"##aria":12002,"95":12003,"Wirklichkeit":12004,"erfolgreiche":12005,"Scott":12006,"Grem":12007,"feststellen":12008,"##kräften":12009,"platz":12010,"Ausführung":12011,"##hungs":12012,"schlägt":12013,"Dynam":12014,"Kohle":12015,"##KA":12016,"##erz":12017,"Zentralb":12018,"##wände":12019,"##amente":12020,"Konf":12021,"##oul":12022,"##alit":12023,"Cam":12024,"##feind":12025,"##,\"":12026,"wirft":12027,"Zuschauern":12028,"angegriffenen":12029,"##isl":12030,"Rap":12031,"garant":12032,"erleich":12033,"Seinen":12034,"Stadtgebiet":12035,"Gewerkschaft":12036,"##tags":12037,"##meldung":12038,"einsch":12039,"Bam":12040,"Abgaben":12041,"lan":12042,"##izont":12043,"Anst":12044,"Bisher":12045,"krank":12046,"mache":12047,"beschließen":12048,"##schützen":12049,"##Grün":12050,"##genannten":12051,"##ugies":12052,"##dorfer":12053,"Rostock":12054,"solange":12055,"Haar":12056,"liber":12057,"##gespielt":12058,"gestanden":12059,"##hier":12060,"dicht":12061,"gelb":12062,"##altar":12063,"##orpor":12064,"##astet":12065,"bestellt":12066,"fehlenden":12067,"##Jährigen":12068,"##jon":12069,"Rub":12070,"Knochen":12071,"##usalem":12072,"wandte":12073,"##gefangen":12074,"##hart":12075,"§11":12076,"1896":12077,"##ariat":12078,"Kell":12079,"Diagn":12080,"##lech":12081,"wusste":12082,"##orff":12083,"##alyse":12084,"##ungsbereich":12085,"vorerst":12086,"türkische":12087,"##idae":12088,"Enkel":12089,"##ope":12090,"##tretern":12091,"##recken":12092,"##fsweise":12093,"Auszeichnung":12094,"##teilungs":12095,"Bundess":12096,"Hunde":12097,"Gebühr":12098,"Südafrika":12099,"##hilfen":12100,"leer":12101,"unters":12102,"diverse":12103,"Zä":12104,"militärische":12105,"##stanti":12106,"##kreisen":12107,"Beihilfe":12108,"Veränderung":12109,"Entsprechend":12110,"inszen":12111,"Strukturen":12112,"Coll":12113,"##ächter":12114,"Betrachtung":12115,"produzierte":12116,"##läufig":12117,"kritisierte":12118,"Ped":12119,"##lefon":12120,"freilich":12121,"herunter":12122,"##weiß":12123,"##version":12124,"Schiffs":12125,"##mod":12126,"vergleichsweise":12127,"Has":12128,"Attent":12129,"##inz":12130,"##andeur":12131,"Reste":12132,"änderte":12133,"Konzeption":12134,"Anfangs":12135,"##schild":12136,"feiern":12137,"##iteratur":12138,"##forscher":12139,"vergröß":12140,"dahingehend":12141,"verwendeten":12142,"Pause":12143,"vereinbarten":12144,"##fassungsgericht":12145,"Ortschaften":12146,"vorläufige":12147,"Fernse":12148,"tiefer":12149,"##aal":12150,"Felix":12151,"Tabelle":12152,"1895":12153,"##ildeten":12154,"reagiert":12155,"Rail":12156,"##sprachen":12157,"vergangen":12158,"##tä":12159,"gefangen":12160,"schott":12161,"angrenzen":12162,"##fähige":12163,"##zemed":12164,"gewün":12165,"##lab":12166,"Oran":12167,"attra":12168,"##brück":12169,"Label":12170,"Versicherten":12171,"diesbe":12172,"bedient":12173,"##ständigkeit":12174,"##aga":12175,"##amentlich":12176,"##erung":12177,"gutes":12178,"offene":12179,"Spieltag":12180,"illeg":12181,"##03":12182,"Künste":12183,"##ofern":12184,"reichte":12185,"Kindheit":12186,"##otograf":12187,"##ikum":12188,"BvR":12189,"Ecke":12190,"##verkauf":12191,"Branchen":12192,"Gefü":12193,"Zeugin":12194,"einheitlichen":12195,"##alerweise":12196,"##stätigkeit":12197,"##nr":12198,"aufnehmen":12199,"rechtskrä":12200,"##oni":12201,"##vens":12202,"##lasse":12203,"Erstmals":12204,"Plänen":12205,"##Beschluss":12206,"Vorteile":12207,"##hlt":12208,"##herstellung":12209,"Trainings":12210,"Potsdam":12211,"Technologie":12212,"##ieber":12213,"voran":12214,"kap":12215,"Bündnis":12216,"Aktie":12217,"det":12218,"gefeiert":12219,"##rufen":12220,"streiten":12221,"Unterkunft":12222,"Bres":12223,"subjekt":12224,"Arzneimittel":12225,"Albrecht":12226,"raus":12227,"reiste":12228,"direkte":12229,"pausch":12230,"gemeint":12231,"heiligen":12232,"lebenden":12233,"meistens":12234,"##samen":12235,"Benz":12236,"Hammer":12237,"Distrikt":12238,"Kontakte":12239,"kompon":12240,"eigentliche":12241,"Verkä":12242,"Dörfer":12243,"Speicher":12244,"##deutschland":12245,"Wahrnehmung":12246,"Riv":12247,"famil":12248,"##betriebe":12249,"Interpret":12250,"##nd":12251,"Corn":12252,"Nahrungs":12253,"Well":12254,"##nutzung":12255,"Eingriffe":12256,"Innerhalb":12257,"##bene":12258,"Tob":12259,"Cra":12260,"verbind":12261,"dest":12262,"KZ":12263,"##legende":12264,"erhöhte":12265,"Bauer":12266,"symbol":12267,"##bal":12268,"sonstige":12269,"##auffassung":12270,"##lein":12271,"##bindung":12272,"##antie":12273,"Maur":12274,"##einigt":12275,"NSDAP":12276,"Handlungen":12277,"Urkunde":12278,"##gemacht":12279,"##ugt":12280,"Lee":12281,"stärk":12282,"##anischer":12283,"engagiert":12284,"Kohlen":12285,"gefahren":12286,"Dur":12287,"behinder":12288,"##Mag":12289,"Nein":12290,"Kilometern":12291,"notwendige":12292,"sorgt":12293,"bekanntesten":12294,"##ickte":12295,"Reh":12296,"Frie":12297,"klingt":12298,"Helm":12299,"##fahrzeuge":12300,"Stars":12301,"##.2002":12302,"##ütt":12303,"Rak":12304,"Vertrages":12305,"##rechtlicher":12306,"##reste":12307,"##bald":12308,"orig":12309,"inneren":12310,"Tiefe":12311,"##AS":12312,"##ynast":12313,"Wohnsitz":12314,"##verantwort":12315,"Rechtsstreits":12316,"Leichtathletik":12317,"Claud":12318,"Realität":12319,"##ito":12320,"teilt":12321,"wirk":12322,"genutz":12323,"Londoner":12324,"%.":12325,"Rauch":12326,"##Politiker":12327,"Amsterdam":12328,"befest":12329,"isol":12330,"##achse":12331,"##könig":12332,"Künstlern":12333,"zusammengef":12334,"Kok":12335,"ei":12336,"Gehalt":12337,"Alp":12338,"Las":12339,"unterschieden":12340,"##semester":12341,"Webs":12342,"##stoffen":12343,"Messer":12344,"##Com":12345,"rum":12346,"Links":12347,"##füllt":12348,"##versicherungs":12349,"Mond":12350,"Skla":12351,"Sechs":12352,"Oberfläche":12353,"Berlins":12354,"funktioniert":12355,"##vas":12356,"erneuten":12357,"##kin":12358,"##frü":12359,"##nischen":12360,"Net":12361,"Arts":12362,"76":12363,"##hain":12364,"##mosphäre":12365,"Schicht":12366,"##ners":12367,"Nicol":12368,"Arthur":12369,"genaue":12370,"EZB":12371,"##atter":12372,"vorgegeben":12373,"Gesellschaften":12374,"abermals":12375,"aufeinander":12376,"##ns":12377,"Bull":12378,"##klusive":12379,"beurteilen":12380,"halben":12381,"Offizier":12382,"##eigentümer":12383,"##gebirge":12384,"##üre":12385,"Kai":12386,"Dritte":12387,"Skulpt":12388,"unmöglich":12389,"VGH":12390,"##archiv":12391,"erarbeitet":12392,"##gasse":12393,"Micro":12394,"Gedenk":12395,"kostet":12396,"##istet":12397,"fehlende":12398,"Antrieb":12399,"##ikas":12400,"EG":12401,"##wall":12402,"unbekannt":12403,"##anträge":12404,"betreut":12405,"##yc":12406,"##stift":12407,"Ford":12408,"syr":12409,"71":12410,"Nick":12411,"we":12412,"Stol":12413,"verursacht":12414,"Mr":12415,"Jün":12416,"steiger":12417,"eingegliedert":12418,"Luxemburg":12419,"##brem":12420,"nutzte":12421,"##TO":12422,"Bronzemed":12423,"##ütten":12424,"strateg":12425,"##feuer":12426,"brasil":12427,"schwarze":12428,"##07":12429,"##hai":12430,"##feier":12431,"berichten":12432,"##WM":12433,"##kette":12434,"genauer":12435,"##gg":12436,"##helfer":12437,"Dorfes":12438,"100.000":12439,"vorgeworfen":12440,"christlichen":12441,"##zulegen":12442,"Kriminal":12443,"insofern":12444,"##uble":12445,"78":12446,"Aqu":12447,"Ot":12448,"streitigen":12449,"##hüter":12450,"Bour":12451,"angewand":12452,"##hold":12453,"herbei":12454,"Eil":12455,"bloß":12456,"Räum":12457,"##unfall":12458,"##Fest":12459,"Bade":12460,"voraussichtlich":12461,"StPO":12462,"##sprüchen":12463,"Eig":12464,"Fro":12465,"##igsten":12466,"bewill":12467,"Halbinsel":12468,"Armut":12469,"##At":12470,"falls":12471,"Technischen":12472,"Soph":12473,"##sextrem":12474,"Konkurrenten":12475,"Schulz":12476,"Venedig":12477,"74":12478,"##ology":12479,"##illerie":12480,"Kommando":12481,"Also":12482,"Kardinal":12483,"gewannen":12484,"überzeugen":12485,"##ympath":12486,"angesprochen":12487,"##Fahr":12488,"##verd":12489,"zivilen":12490,"Int":12491,"kommer":12492,"jeweilige":12493,"automatisch":12494,"Installation":12495,"##svertrag":12496,"Kühl":12497,"verpflichten":12498,"Hügel":12499,"mittlere":12500,"##ürzte":12501,"Blei":12502,"##ardo":12503,"Fusion":12504,"##aufgaben":12505,"schlechten":12506,"##uay":12507,"Tru":12508,"sinnvoll":12509,"mod":12510,"1897":12511,"akadem":12512,"##verbrauch":12513,"Millimeter":12514,"errichteten":12515,"herangezogen":12516,"Definition":12517,"Final":12518,"Einhaltung":12519,"##öpfe":12520,"siehe":12521,"beruhen":12522,"entworfen":12523,"real":12524,"##Alb":12525,"Deut":12526,"##ehren":12527,"##alom":12528,"73":12529,"beobachten":12530,"Brunnen":12531,"vorrang":12532,"jahrel":12533,"starben":12534,"Abstimmung":12535,"beraten":12536,"Hundert":12537,"##ienz":12538,"##ansprüche":12539,"Geschehen":12540,"Ray":12541,"Größen":12542,"##reichung":12543,"Sens":12544,"##konstru":12545,"anschließenden":12546,"Luxus":12547,"##Europameister":12548,"Argentinien":12549,"Siegen":12550,"Kommunen":12551,"geöffnet":12552,"Formulierung":12553,"##/16":12554,"##archie":12555,"Festlegung":12556,"Vize":12557,"Spenden":12558,"PC":12559,"abend":12560,"##asp":12561,"Bildern":12562,"##verlust":12563,"##eitigung":12564,"##utbar":12565,"##ieht":12566,"Wäl":12567,"Jones":12568,"Einspruch":12569,"##vide":12570,"##rechten":12571,"befasst":12572,"Patri":12573,"Jena":12574,"##Jo":12575,"##hedr":12576,"##fache":12577,"##ömm":12578,"##folgung":12579,"bedeut":12580,"umfassende":12581,"Tageb":12582,"##durchschnitt":12583,"##äfts":12584,"Lew":12585,"LB":12586,"Regelungs":12587,"Rumänien":12588,"##mor":12589,"##arta":12590,"##ioren":12591,"Bernd":12592,"zustande":12593,"engagierte":12594,"fragt":12595,"##bleiben":12596,"portugies":12597,"Infl":12598,"Legen":12599,"Mario":12600,"Neuse":12601,"geprä":12602,"France":12603,"##geschlecht":12604,"Heck":12605,"Schülern":12606,"##Th":12607,"Tirol":12608,"##festsetzung":12609,"Football":12610,"Hauptrolle":12611,"Küche":12612,"##verlauf":12613,"##zylinder":12614,"Malerei":12615,"Borussia":12616,"glaubhaft":12617,"Erwähnung":12618,"Effekt":12619,"SozR":12620,"##ituationen":12621,"Zell":12622,"Eigentums":12623,"##lässt":12624,"##Konzern":12625,"##Cup":12626,"verstorbenen":12627,"##uver":12628,"##greif":12629,"Jörg":12630,"gemeldet":12631,"Prü":12632,"##Schule":12633,"umgew":12634,"Distanz":12635,"Ethn":12636,"erlebte":12637,"verstoßen":12638,"debüt":12639,"bedeutende":12640,"Cur":12641,"minder":12642,"Demnach":12643,"geleistet":12644,"##Stiftung":12645,"Kanzlerin":12646,"##ozi":12647,"Wis":12648,"##ichen":12649,"1871":12650,"Konstruktion":12651,"kommerzie":12652,"Investment":12653,"##gige":12654,"Koblenz":12655,"gestern":12656,"##fung":12657,"vollständige":12658,"5000":12659,"Europä":12660,"##dichte":12661,"Duis":12662,"Prozesskosten":12663,"nächst":12664,"unwirksam":12665,"Vern":12666,"Pension":12667,"##osex":12668,"normalen":12669,"Sul":12670,"Aufsicht":12671,"##seitigen":12672,"wöch":12673,"Exemplare":12674,"Hang":12675,"Dublin":12676,"##liegende":12677,"##stitu":12678,"Jäger":12679,"beigesetzt":12680,"Landkreises":12681,"##ray":12682,"##ydro":12683,"##ühmt":12684,"Bundesinnen":12685,"britischer":12686,"##vorsitzenden":12687,"Bargeld":12688,"Gunsten":12689,"Fan":12690,"Tun":12691,"Twitter":12692,"Mittelmeer":12693,"geschul":12694,"Aufsichtsrat":12695,"unber":12696,"Normal":12697,"dokumentiert":12698,"##owa":12699,"Betriebsver":12700,"##ript":12701,"Mechan":12702,"Tokio":12703,"##ibil":12704,"natürlichen":12705,"ukra":12706,"Auß":12707,"Heimatstadt":12708,"##wein":12709,"Serb":12710,"Erwartungen":12711,"##reisträger":12712,"Thron":12713,"Reichstag":12714,"grundle":12715,"Amtes":12716,"Kandidat":12717,"äußeren":12718,"##tere":12719,"##wälte":12720,"Krone":12721,"##entwurf":12722,"##Pol":12723,"Loch":12724,"##loh":12725,"Freiwill":12726,"vermittelt":12727,"Zeitschriften":12728,"##vö":12729,"Seen":12730,"Telef":12731,"##branche":12732,"##zession":12733,"##ree":12734,"Schadens":12735,"fürs":12736,"Wester":12737,"materiell":12738,"versuchten":12739,"Neun":12740,"Tatbestand":12741,"##versuch":12742,"96":12743,"##fuhr":12744,"Erscheinung":12745,"##winkel":12746,"##risiko":12747,"Mineral":12748,"(6":12749,"##post":12750,"Cru":12751,"Liv":12752,"##oir":12753,"##rektur":12754,"beenden":12755,"##elie":12756,"##weihe":12757,"ausländischen":12758,"vorgeschlagen":12759,"##05":12760,"Gesichtspunkt":12761,"Kür":12762,"##denkm":12763,"Becken":12764,"Ful":12765,"sehe":12766,"Jerusalem":12767,"Heeres":12768,"Beratungs":12769,"Bevollmächt":12770,"##rechter":12771,"Becker":12772,"##widrigkeit":12773,"stattgefunden":12774,"##hängen":12775,"erfährt":12776,"Arbeitgebers":12777,"arg":12778,"Frankreichs":12779,"Konsum":12780,"ausgestellt":12781,"Wart":12782,"##ello":12783,"Friedrichs":12784,"betreffend":12785,"##stiegen":12786,"##odie":12787,"##unterhalt":12788,"umfangreiche":12789,"Tay":12790,"vornherein":12791,"klin":12792,"Leipziger":12793,"##praxis":12794,"mangeln":12795,"brachten":12796,"iS":12797,"Gehör":12798,"##gements":12799,"##eldungen":12800,"Doping":12801,"Maßstä":12802,"wenigstens":12803,"herrscht":12804,"##gener":12805,"##uerei":12806,"belieb":12807,"Nachteil":12808,"Blumen":12809,"##akon":12810,"besseren":12811,"Arnold":12812,"gesperrt":12813,"##imp":12814,"setzten":12815,"vielfält":12816,"##/05":12817,"##gäste":12818,"2003,":12819,"zweites":12820,"Regensburg":12821,"##urlaub":12822,"Reiches":12823,"Haushalte":12824,"gewährleistet":12825,"Besatzung":12826,"komment":12827,"##igste":12828,"Gör":12829,"Extrem":12830,"##maler":12831,"Freunden":12832,"##zeichneten":12833,"Viertelfinale":12834,"zurückzuführen":12835,"Zo":12836,"Kund":12837,"Stürmer":12838,"Amb":12839,"einzelner":12840,"Null":12841,"stattf":12842,"Verbreitungs":12843,"befindlichen":12844,"##issionen":12845,"##Bundesliga":12846,"##AF":12847,"Ret":12848,"##trieben":12849,"Glaubens":12850,"Dialog":12851,"Chron":12852,"Laur":12853,"erkennt":12854,"bloße":12855,"trag":12856,"##maßnahme":12857,"erzeugt":12858,"##skirche":12859,"##ids":12860,"##leut":12861,"Verk":12862,"syn":12863,"niemals":12864,"##weilen":12865,"Putin":12866,"schien":12867,"Ausgleichs":12868,"##kassen":12869,"geweiht":12870,"Rechtmäßigkeit":12871,"##inos":12872,"int":12873,"betreiben":12874,"Änderungs":12875,"geforder":12876,"Pic":12877,"Major":12878,"##ulierte":12879,"##ausgaben":12880,"gekennzeichnet":12881,"##hodox":12882,"Yorker":12883,"festen":12884,"beliebt":12885,"zusammenge":12886,"##4-":12887,"##estra":12888,"##delte":12889,"1893":12890,"Mehrere":12891,"##hab":12892,"Flan":12893,"Reparatur":12894,"##derten":12895,"Entlassung":12896,"##anspruchnahme":12897,"Erwerbs":12898,"##abschluss":12899,"geleitet":12900,"##politischen":12901,"##ritts":12902,"inhaltlich":12903,"Komponisten":12904,"führe":12905,"ermordet":12906,"##riffen":12907,"Früher":12908,"ähnlichen":12909,"grundsätzliche":12910,"##listen":12911,"Inkraft":12912,"##üß":12913,"##schull":12914,"beklei":12915,"88":12916,"Are":12917,"Keine":12918,"Spekt":12919,"zeitlich":12920,"Rainer":12921,"lande":12922,"##randenburg":12923,"\"\"":12924,"Absol":12925,"sodann":12926,"##mangel":12927,"Boston":12928,"Systems":12929,"Prozentpunkten":12930,"##inuier":12931,"##alth":12932,"§13":12933,"Viol":12934,"Handy":12935,"Angelegenheiten":12936,"##umph":12937,"Verlags":12938,"##Dem":12939,"Mang":12940,"##geschicht":12941,"##kündigung":12942,"##lausel":12943,"##Ost":12944,"Harry":12945,"States":12946,"Meinungs":12947,"Blo":12948,"fungierte":12949,"Gil":12950,"##gesetzbuch":12951,"Folgezeit":12952,"Freude":12953,"Krisen":12954,"##_1":12955,"Texas":12956,"Glücks":12957,"gekauft":12958,"Fert":12959,"Nachlass":12960,"wahrgenommen":12961,"##gebietes":12962,"angehör":12963,"entscheidenden":12964,"VO":12965,"Schwimm":12966,"angestre":12967,"##Ad":12968,"##kapelle":12969,"sechsten":12970,"Schil":12971,"bestimmter":12972,"##Tour":12973,"ermittel":12974,"##osse":12975,"japanische":12976,"Paläst":12977,"begrenz":12978,"Kinos":12979,"spanische":12980,"Trauer":12981,"Händler":12982,"Gir":12983,"Langen":12984,"evangelischen":12985,"Empfänger":12986,"Institutionen":12987,"restlichen":12988,"Kapazitäten":12989,"nation":12990,"##aßen":12991,"gewinnt":12992,"##meisterschaften":12993,"##Werk":12994,"Trier":12995,"Hut":12996,"Pseud":12997,"##förmige":12998,"##ili":12999,"§15":13000,"##He":13001,"[unused_punctuation19]":13002,"News":13003,"weiße":13004,"##AN":13005,"##:00":13006,"Bäume":13007,"Sportler":13008,"Dokumente":13009,"##redaktion":13010,"Angebote":13011,"vorstellen":13012,"einher":13013,"finanziert":13014,"Gegenstände":13015,"hielten":13016,"Arbeitsplätze":13017,"##rent":13018,"##ason":13019,"mitten":13020,"##Ter":13021,"Studiums":13022,"eingeladen":13023,"zuzulassen":13024,"namentlich":13025,"traditionell":13026,"##08":13027,"Alte":13028,"gefasst":13029,"##grundstück":13030,"##ländischer":13031,"Röm":13032,"Auftraggeber":13033,"##pause":13034,"Helden":13035,"##eutnant":13036,"gerechnet":13037,"drän":13038,"Glie":13039,"##mechan":13040,"##Man":13041,"bezeichnen":13042,"klassische":13043,"Act":13044,"Erdbe":13045,"Hugo":13046,"Spiels":13047,"Werkstatt":13048,"unseren":13049,"eingestuft":13050,"wunder":13051,"##ignal":13052,"##zahlten":13053,"AT":13054,"Opel":13055,"Hilf":13056,"Ensemble":13057,"##ikern":13058,"fühlt":13059,"Mans":13060,"gezählt":13061,"Bahnhofs":13062,"##sächsischen":13063,"Ausmaß":13064,"##parks":13065,"Fassade":13066,"kombin":13067,"Dresdner":13068,"ordnungsgemäß":13069,"Sekretär":13070,"Ga":13071,"typischen":13072,"Som":13073,"Inse":13074,"##lättern":13075,"Mischung":13076,"Feier":13077,"##oli":13078,"##litz":13079,"##warf":13080,"Ts":13081,"##eistungen":13082,"Wohnhaus":13083,"betrieblichen":13084,"##sprachige":13085,"Jedenfalls":13086,"##yz":13087,"##bellen":13088,"Volkszählung":13089,"Leder":13090,"Schwein":13091,"Phänomen":13092,"##Teil":13093,"Kanal":13094,"##reife":13095,"themat":13096,"Netzwerk":13097,"dänischen":13098,"speziellen":13099,"Kel":13100,"##verwalter":13101,"gegenwärt":13102,"##nütz":13103,"geäußert":13104,"zwangs":13105,"denkmalgesch":13106,"verlegen":13107,"dauert":13108,"##:201":13109,"##Recht":13110,"##ulden":13111,"Inneren":13112,"Vergleichs":13113,"##Mon":13114,"##gleis":13115,"##manager":13116,"Hallen":13117,"##otiv":13118,"Runden":13119,"Taten":13120,"##aya":13121,"##eta":13122,"Klim":13123,"Diöz":13124,"##studien":13125,"Luther":13126,"##klen":13127,"schriftlichen":13128,"##echter":13129,"Einigung":13130,"erlitten":13131,"##ivals":13132,"##verteilung":13133,"##denkmale":13134,"##fahrts":13135,"Befra":13136,"##rekord":13137,"Günther":13138,"berühmte":13139,"erledigt":13140,"Eta":13141,"##marke":13142,"Nachmittag":13143,"##bä":13144,"aufgeb":13145,"gewährleisten":13146,"##ads":13147,"##ovo":13148,"Überleben":13149,"Konjunktur":13150,"##zeuger":13151,"dienten":13152,"Tauf":13153,"Rande":13154,"CO":13155,"NVw":13156,"Oft":13157,"Baugenehmigung":13158,"Vul":13159,"fakt":13160,"erhobenen":13161,"##Prof":13162,"Knie":13163,"maxim":13164,"##vorhaben":13165,"geschätzt":13166,"Gü":13167,"##atus":13168,"##bares":13169,"samt":13170,"Binnen":13171,"Route":13172,"Lern":13173,"Genau":13174,"Scha":13175,"Biele":13176,"##Vorp":13177,"##Bei":13178,"starten":13179,"keineswegs":13180,"##mern":13181,"Laub":13182,"Berichte":13183,"integriert":13184,"schafft":13185,"ann":13186,"Konzerte":13187,"Darlehens":13188,"Innenminister":13189,"Erf":13190,"erörtert":13191,"##ühlen":13192,"Human":13193,"junger":13194,"##schaffung":13195,"Mach":13196,"Wiederein":13197,"##uts":13198,"Württemberg":13199,"interpret":13200,"aktive":13201,"Index":13202,"Richtigkeit":13203,"Mühle":13204,"##ogn":13205,"Goethe":13206,"Verurteilung":13207,"Stütz":13208,"Soldat":13209,"##asa":13210,"engen":13211,"Verteilung":13212,"Virgin":13213,"Bauwerk":13214,"ausreichender":13215,"##aks":13216,"11,":13217,"korre":13218,"demonst":13219,"fikt":13220,"gefährlich":13221,"Vikt":13222,"Ausbruch":13223,"##antin":13224,"##ähern":13225,"##prinzip":13226,"beinahe":13227,"preis":13228,"womöglich":13229,"##eigung":13230,"Staub":13231,"Ausscheiden":13232,"Metz":13233,"debütierte":13234,"Ky":13235,"ök":13236,"umso":13237,"Berecht":13238,"besuchen":13239,"Maximilian":13240,"religiösen":13241,"##organisationen":13242,"Abbau":13243,"##gebunden":13244,"unterliegt":13245,"umfassenden":13246,"Such":13247,"##tau":13248,"##ladbach":13249,"##quellen":13250,"##ständiger":13251,"kaiser":13252,"ausgestrahlt":13253,"Klagen":13254,"beruflichen":13255,"Konsequenzen":13256,"schn":13257,"meldete":13258,"Rechtsbe":13259,"##oppen":13260,"##ähren":13261,"##drückt":13262,"jüngste":13263,"vorkommen":13264,"anim":13265,"Hochzeit":13266,"Aufstellung":13267,"Zulässigkeit":13268,"Anbau":13269,"##ächtnis":13270,"Christus":13271,"##bundes":13272,"##ete":13273,"##nab":13274,"##alismus":13275,"eingebaut":13276,"positiven":13277,"Abfall":13278,"Tieren":13279,"Vordergrund":13280,"erheben":13281,"##bec":13282,"##läufe":13283,"##zirke":13284,"abgebrochen":13285,"Inkrafttreten":13286,"dis":13287,"deu":13288,"1892":13289,"Inf":13290,"##hängt":13291,"kanadischen":13292,"Hass":13293,"Baron":13294,"##zentrale":13295,"Vorfeld":13296,"einver":13297,"nutzt":13298,"leider":13299,"##stechnik":13300,"##acken":13301,"Kun":13302,"##iments":13303,"Urlaubs":13304,"ehemals":13305,"##BVerfG":13306,"verlang":13307,"##Haupt":13308,"##storben":13309,"trafen":13310,"##oire":13311,"Sturz":13312,"Senioren":13313,"##sverhältnis":13314,"verzeichnet":13315,"sahen":13316,"auszulegen":13317,"##RK":13318,"Äl":13319,"anlegen":13320,"Juris":13321,"beteiligte":13322,"Hung":13323,"Hagen":13324,"Heide":13325,"Kantons":13326,"regionalen":13327,"objektiv":13328,"##kov":13329,"Finanzminister":13330,"bezog":13331,"nachge":13332,"##schließt":13333,"Abm":13334,"##kg":13335,"Orch":13336,"Synag":13337,"organisierte":13338,"##stöße":13339,"aufweisen":13340,"##EL":13341,"##ietung":13342,"Partien":13343,"Nikolaus":13344,"lehrte":13345,"Konstant":13346,"##becken":13347,"Jar":13348,"Dire":13349,"##anze":13350,"Dou":13351,"##üsten":13352,"Berge":13353,"Spielklasse":13354,"##Su":13355,"##ingu":13356,"Hay":13357,"Erben":13358,"##angriff":13359,"Ursprung":13360,"mo":13361,"Bevor":13362,"weiten":13363,"vertritt":13364,"Inanspruchnahme":13365,"##feln":13366,"##fahrung":13367,"einbezogen":13368,"##lach":13369,"fehle":13370,"erschossen":13371,"Quadratmeter":13372,"##flex":13373,"ausgelegt":13374,"350":13375,"Pion":13376,"Anzeige":13377,"beschrieb":13378,"##hlon":13379,"Einzug":13380,"Priorität":13381,"Geschichts":13382,"liefern":13383,"Versuche":13384,"unterbrochen":13385,"Umzug":13386,"begrü":13387,"Moritz":13388,"Südwest":13389,"Ero":13390,"Liebl":13391,"##atorin":13392,"##portal":13393,"bedingt":13394,"vorzubereiten":13395,"##irchen":13396,"##zeitschrift":13397,"Hob":13398,"##illen":13399,"##ausgabe":13400,"vielfach":13401,"Zie":13402,"##leutnant":13403,"##geschäfte":13404,"Sachverständige":13405,"##BB":13406,"##itee":13407,"##anni":13408,"##hafter":13409,"Wiesen":13410,"##politische":13411,"ww":13412,"##tausend":13413,"Haftung":13414,"problem":13415,"##Vert":13416,"##Fraktion":13417,"Anstieg":13418,"##formationen":13419,"Währungs":13420,"kontinuier":13421,"www":13422,"Budap":13423,"erb":13424,"ausgeübt":13425,"Toren":13426,"##zentrums":13427,"##arett":13428,"schlossen":13429,"eingeweiht":13430,"Piloten":13431,"##grundsatz":13432,"##gesagt":13433,"natürliche":13434,"Rechtsan":13435,"Fu":13436,"§14":13437,"Spielern":13438,"ausgerichtet":13439,"##iness":13440,"##gow":13441,"Satell":13442,"dauerte":13443,"Wach":13444,"Händen":13445,"##völkerung":13446,"Gon":13447,"##erium":13448,"1894":13449,"Galerie":13450,"##etwa":13451,"größtenteils":13452,"##fektion":13453,"verwirk":13454,"##New":13455,"Agr":13456,"zusammengefasst":13457,"##gerichtet":13458,"##ladimir":13459,"vorbereitet":13460,"##plomat":13461,"nationalsozial":13462,"do":13463,"##ctic":13464,"##ustr":13465,"Schein":13466,"Klärung":13467,"schlagen":13468,"##berechtigt":13469,"abgelöst":13470,"##steuropa":13471,"##älte":13472,"steckt":13473,"gewid":13474,"wiederhol":13475,"trans":13476,"Festung":13477,"ausgelöst":13478,"erkran":13479,"Angehörige":13480,"Caf":13481,"##angaben":13482,"Stufen":13483,"Urheber":13484,"Härte":13485,"##mittels":13486,"##ahme":13487,"##Wil":13488,"1:0":13489,"Valle":13490,"Befrist":13491,"Abgeordnete":13492,"ethn":13493,"Motto":13494,"##komplex":13495,"Ausgangs":13496,"freiwillig":13497,"##luft":13498,"##quid":13499,"Onkel":13500,"Wärme":13501,"ökonom":13502,"finn":13503,"Roland":13504,"Bescheide":13505,"##drom":13506,"##präsid":13507,"##sbruck":13508,"##TS":13509,"Sind":13510,"##ementen":13511,"Widerrufs":13512,"Olympias":13513,"Ungleich":13514,"Lebensjahr":13515,"##mö":13516,"##leib":13517,"Sorgen":13518,"##mas":13519,"##aufent":13520,"##ifest":13521,"beinhaltet":13522,"##alin":13523,"Jury":13524,"Gedicht":13525,"anderweit":13526,"##adi":13527,"##Vorsitzen":13528,"amb":13529,"##ypen":13530,"1.1":13531,"Obst":13532,"gefertigt":13533,"##räder":13534,"1885":13535,"Napole":13536,"richtete":13537,"schlicht":13538,"Kindergeld":13539,"##schel":13540,"##ennungs":13541,"Porsche":13542,"Vereinten":13543,"ank":13544,"Lübeck":13545,"Nachkriegs":13546,"##mil":13547,"verläss":13548,"Nachteile":13549,"99":13550,"hört":13551,"Linden":13552,"Patrick":13553,"Stipend":13554,"einziger":13555,"##konstruktion":13556,"hom":13557,"stür":13558,"Winkel":13559,"##kreise":13560,"##zeitraum":13561,"White":13562,"Kommunikations":13563,"Viet":13564,"entdeckte":13565,"##oldungs":13566,"Spreng":13567,"gefär":13568,"Günter":13569,"##-1-":13570,"##regeln":13571,"##äle":13572,"NVwZ":13573,"##istanz":13574,"##Don":13575,"Allianz":13576,"##Vorpommern":13577,"##rus":13578,"##wirtscha":13579,"##wohnung":13580,"Zauber":13581,"geschafft":13582,"DVD":13583,"Hed":13584,"Veranst":13585,"Renaissance":13586,"folgender":13587,
[...]
